[PAD]	0
[UNK]	0
[SOS]	0
[EOS]	0
▁क	-0
▁स	-1
▁ह	-2
▁प	-3
▁म	-4
्र	-5
ार	-6
▁है	-7
ें	-8
▁ज	-9
▁अ	-10
▁के	-11
▁व	-12
या	-13
▁न	-14
▁ब	-15
▁उ	-16
▁त	-17
ों	-18
▁द	-19
▁ल	-20
▁औ	-21
ने	-22
▁और	-23
▁में	-24
र्	-25
▁र	-26
ता	-27
्य	-28
▁की	-29
▁कर	-30
ान	-31
▁कि	-32
▁प्र	-33
▁आ	-34
▁को	-35
िक	-36
▁से	-37
्त	-38
▁भ	-39
▁का	-40
ना	-41
▁इ	-42
▁ग	-43
ित	-44
▁(	-45
▁पर	-46
▁य	-47
ाल	-48
▁हो	-49
▁ए	-50
्व	-51
▁च	-52
ही	-53
न्	-54
▁लि	-55
▁श	-56
ते	-57
▁वि	-58
▁सं	-59
▁जा	-60
▁हैं	-61
▁इस	-62
▁उस	-63
के	-64
ला	-65
▁ख	-66
ोग	-67
था	-68
्ष	-69
ति	-70
ड़	-71
▁एक	-72
स्	-73
ुम	-74
िय	-75
▁लिए	-76
हा	-77
▁सम	-78
हीं	-79
्या	-80
ती	-81
▁फ	-82
्ट	-83
▁अप	-84
▁उन	-85
▁जो	-86
▁तो	-87
▁सा	-88
▁नहीं	-89
वा	-90
▁दे	-91
▁तुम	-92
▁नि	-93
▁हम	-94
रा	-95
से	-96
दा	-97
िया	-98
▁भी	-99
▁ने	-100
त्र	-101
का	-102
ल्	-103
सी	-104
▁रा	-105
▁जि	-106
▁या	-107
▁बा	-108
री	-109
कार	-110
गा	-111
नी	-112
क्ष	-113
▁किया	-114
ज़	-115
▁अन	-116
ास	-117
▁यह	-118
▁ही	-119
ले	-120
सा	-121
ष्ट	-122
की	-123
ेश	-124
ारा	-125
कर	-126
मा	-127
▁करने	-128
▁थ	-129
ंग	-130
▁अध	-131
▁मु	-132
त्	-133
▁लोग	-134
▁वह	-135
िर	-136
▁स्	-137
▁हु	-138
क्त	-139
▁कु	-140
कि	-141
▁दि	-142
▁कार	-143
▁रह	-144
ाम	-145
▁ड	-146
▁उप	-147
ारे	-148
ाह	-149
न्ह	-150
▁सक	-151
द्	-152
▁अपने	-153
ियों	-154
ारी	-155
▁वे	-156
मान	-157
▁था	-158
▁ले	-159
▁ऐ	-160
▁1	-161
िल	-162
स्त	-163
▁ध	-164
रे	-165
वि	-166
ूप	-167
्च	-168
गे	-169
▁पू	-170
▁सु	-171
्री	-172
▁भार	-173
भा	-174
▁जिस	-175
ंत	-176
▁आप	-177
में	-178
▁गया	-179
▁पह	-180
▁उन्ह	-181
ैं	-182
ओं	-183
ंध	-184
▁तथा	-185
▁वाल	-186
दि	-187
्ह	-188
▁कुछ	-189
ली	-190
▁छ	-191
▁किसी	-192
▁ख़	-193
▁द्व	-194
ीन	-195
▁तुम्ह	-196
ूल	-197
▁दो	-198
▁अनु	-199
▁स्व	-200
▁साथ	-201
ाप	-202
ुदा	-203
▁मे	-204
▁जब	-205
को	-206
देश	-207
▁घ	-208
म्	-209
▁रूप	-210
खा	-211
ोज	-212
▁चाह	-213
▁अधिक	-214
▁कोई	-215
▁निर्	-216
ंद	-217
ंड	-218
ाय	-219
ुर	-220
द्ध	-221
▁उनके	-222
▁विश	-223
गी	-224
▁ला	-225
ार्	-226
▁थे	-227
▁ट	-228
▁तक	-229
भी	-230
▁द्वारा	-231
न्द	-232
ढ़	-233
▁करें	-234
▁करते	-235
▁पा	-236
▁व्य	-237
▁राज	-238
▁प्रति	-239
गर	-240
▁लोगों	-241
▁भा	-242
ाना	-243
र्व	-244
▁बना	-245
▁दिया	-246
नों	-247
▁क्ष	-248
▁परि	-249
▁2	-250
क़	-251
▁वर्	-252
योग	-253
त्त	-254
▁जाए	-255
▁बह	-256
लाह	-257
ंत्र	-258
ुत	-259
▁कह	-260
▁भारत	-261
धार	-262
▁मा	-263
▁फिर	-264
जी	-265
ये	-266
ाद	-267
िए	-268
▁राष्ट	-269
▁तर	-270
▁अल्	-271
▁सि	-272
▁कार्य	-273
क्	-274
▁ये	-275
रण	-276
▁मैं	-277
्ञ	-278
ुन	-279
▁अव	-280
▁कहा	-281
क्र	-282
▁स्थ	-283
▁जाता	-284
बंध	-285
्छ	-286
▁रहे	-287
▁उसके	-288
क्ति	-289
▁क्या	-290
फ़	-291
▁"	-292
▁रख	-293
▁इन	-294
▁सब	-295
▁ई	-296
ूर	-297
ष्	-298
▁करना	-299
▁अल्लाह	-300
▁ज़	-301
ड़ा	-302
नि	-303
▁ख़ुदा	-304
▁अपनी	-305
▁थी	-306
द्य	-307
▁सर	-308
ंच	-309
ानी	-310
ब्	-311
जा	-312
न्न	-313
▁फ़	-314
▁मह	-315
च्छ	-316
त्य	-317
र्ण	-318
▁जी	-319
स्थ	-320
▁बात	-321
▁हुए	-322
मी	-323
्यों	-324
दी	-325
पर	-326
▁सू	-327
▁विक	-328
▁उन्हें	-329
▁करता	-330
▁सी	-331
्रे	-332
▁होता	-333
िन	-334
वाल	-335
श्च	-336
▁क़	-337
ेत्र	-338
▁ओ	-339
ोंने	-340
▁रहा	-341
ड़े	-342
▁सकता	-343
कृ	-344
िका	-345
▁उसे	-346
ाइ	-347
ाप्त	-348
चार	-349
▁हि	-350
▁दी	-351
▁बी	-352
र्थ	-353
▁जान	-354
बर	-355
च्च	-356
▁गु	-357
मे	-358
वर्	-359
ूस	-360
▁क्षेत्र	-361
▁मान	-362
▁देख	-363
टा	-364
▁बहुत	-365
▁समय	-366
▁राष्ट्र	-367
ड़ी	-368
ज्ञ	-369
▁मि	-370
दान	-371
00	-372
पू	-373
हर	-374
▁पु	-375
▁जै	-376
र्म	-377
▁बाद	-378
भि	-379
ोल	-380
▁पै	-381
शन	-382
वन	-383
▁आय	-384
ियम	-385
कों	-386
टी	-387
पति	-388
वे	-389
▁तरह	-390
▁सह	-391
▁बे	-392
▁वाले	-393
▁उन्होंने	-394
▁हुआ	-395
▁काम	-396
▁पास	-397
वी	-398
▁देश	-399
▁पहले	-400
▁अंत	-401
..	-402
ोक	-403
प्र	-404
▁हमने	-405
ेष	-406
चना	-407
▁उत्	-408
स्था	-409
्रीय	-410
▁ना	-411
▁होगा	-412
▁जिन	-413
ुल	-414
▁उनकी	-415
क्षा	-416
▁यदि	-417
▁तुम्हारे	-418
ौर	-419
▁गई	-420
झे	-421
▁बि	-422
▁गए	-423
ख़	-424
▁प्राप्त	-425
्रा	-426
धान	-427
▁सरकार	-428
▁अन्य	-429
▁संबंध	-430
▁दिन	-431
▁होने	-432
▁ओर	-433
▁हू	-434
न्त	-435
▁वर्ष	-436
▁पी	-437
▁सम्	-438
धि	-439
यों	-440
▁सभी	-441
▁कम	-442
एँ	-443
▁छो	-444
▁विश्व	-445
हां	-446
▁चु	-447
▁19	-448
▁ऐसे	-449
▁करो	-450
िक्ष	-451
▁हमारे	-452
गत	-453
लि	-454
▁राष्ट्रपति	-455
स्ता	-456
करण	-457
वं	-458
▁नाम	-459
▁प्रा	-460
दार	-461
▁झ	-462
▁निक	-463
श्य	-464
▁प्रकार	-465
▁बद	-466
ंक	-467
▁सकते	-468
एं	-469
टे	-470
▁साम	-471
▁ता	-472
भाव	-473
▁चाहिए	-474
सर	-475
िश	-476
ीय	-477
तीय	-478
▁s	-479
▁मिल	-480
▁इसके	-481
ग्र	-482
▁बु	-483
▁ऊ	-484
तर	-485
▁बढ़	-486
स्ट	-487
वर	-488
्स	-489
▁किए	-490
िप	-491
▁उसकी	-492
चा	-493
▁हर	-494
त्व	-495
▁जाने	-496
▁होती	-497
बा	-498
हाँ	-499
ंप	-500
जन	-501
▁अच्छ	-502
शा	-503
ोजना	-504
तिक	-505
ूम	-506
दर्	-507
▁ची	-508
▁नी	-509
▁'	-510
▁दूस	-511
▁रस	-512
माण	-513
▁ईमान	-514
रो	-515
▁ठ	-516
शी	-517
▁अगर	-518
▁करे	-519
पूर्ण	-520
यी	-521
बी	-522
मत	-523
िति	-524
▁ऐसा	-525
▁एवं	-526
▁हों	-527
गार	-528
ास्त	-529
▁राज्य	-530
द्योग	-531
▁समझ	-532
▁पहु	-533
▁कारण	-534
▁विकास	-535
सार	-536
पाद	-537
▁अब	-538
▁व्यक्ति	-539
▁लग	-540
▁भारतीय	-541
ची	-542
ात	-543
▁कृ	-544
्यू	-545
▁मो	-546
ेंगे	-547
ध्य	-548
▁मुझे	-549
वल	-550
त्म	-551
▁रसूल	-552
▁हुई	-553
ाली	-554
▁(_	-555
▁हा	-556
ुक्त	-557
ाइल	-558
द्र	-559
▁स्त	-560
वार	-561
टर	-562
ेज	-563
▁जन	-564
किन	-565
▁पूर्व	-566
धा	-567
यन	-568
▁व्या	-569
01	-570
ष्ठ	-571
ेल	-572
▁लगा	-573
ज़ा	-574
मु	-575
▁मूल	-576
तन	-577
▁दु	-578
▁क्यों	-579
▁उसने	-580
पी	-581
▁लेकिन	-582
▁दिखा	-583
▁लिया	-584
▁बन	-585
क्रम	-586
▁वा	-587
तः	-588
▁दोनों	-589
▁जाती	-590
on	-591
िम	-592
▁प्रश	-593
▁तुम्हें	-594
लों	-595
▁मौ	-596
▁सद	-597
▁क्र	-598
दे	-599
ोर	-600
▁वै	-601
लय	-602
▁अस	-603
▁अपना	-604
ाला	-605
▁उपयोग	-606
▁ऐसी	-607
वाद	-608
लग	-609
▁खा	-610
्ड	-611
▁आव	-612
▁जीवन	-613
▁विशेष	-614
▁चल	-615
▁होते	-616
▁3	-617
▁अभि	-618
हाय	-619
चे	-620
▁à	-621
▁ग्र	-622
▁प्रदान	-623
िंग	-624
धिक	-625
तों	-626
▁बारे	-627
▁रही	-628
▁बीच	-629
▁ढ	-630
▁बै	-631
व्य	-632
▁रु	-633
▁वाला	-634
▁मुख	-635
▁मन	-636
कारी	-637
▁बार	-638
फल	-639
▁भाग	-640
▁यु	-641
▁उत्त	-642
।"	-643
▁समा	-644
चित	-645
काश	-646
▁खु	-647
▁श्री	-648
▁शिक्ष	-649
me	-650
▁निय	-651
▁जैसे	-652
ेक	-653
▁सहाय	-654
▁वास्त	-655
▁स्था	-656
▁उसका	-657
ंभ	-658
▁ऑ	-659
तना	-660
▁आधार	-661
ठा	-662
ख्या	-663
डी	-664
िस	-665
वेश	-666
▁आज	-667
▁सेवा	-668
ti	-669
षण	-670
िला	-671
▁कै	-672
▁न्या	-673
कता	-674
▁जाएगा	-675
▁देने	-676
्ल	-677
हित	-678
षा	-679
▁केवल	-680
▁चीज़	-681
धन	-682
▁उनका	-683
▁दृ	-684
▁गा	-685
▁माल	-686
ल्प	-687
▁हमें	-688
▁प्रयोग	-689
▁मेरे	-690
ून	-691
▁रब	-692
ग़	-693
ार्थ	-694
▁आवश्य	-695
▁सो	-696
▁जिसमें	-697
ूद	-698
ज्ञान	-699
क्षण	-700
▁हूँ	-701
▁दर	-702
▁बो	-703
▁वही	-704
▁विचार	-705
▁सर्व	-706
रिक	-707
▁निश्च	-708
▁मार्	-709
▁स्थान	-710
ियां	-711
णी	-712
▁ताकि	-713
र्य	-714
▁स्प	-715
▁पैदा	-716
ित्र	-717
▁मै	-718
पित	-719
ुट	-720
▁वाली	-721
▁प्रत्य	-722
्न	-723
न्तु	-724
▁n	-725
▁सबसे	-726
▁इसे	-727
in	-728
▁बड़ा	-729
▁उसी	-730
िता	-731
रों	-732
▁जाना	-733
ंस	-734
त्ता	-735
▁निर्धार	-736
िनियम	-737
यास	-738
▁माम	-739
▁हमारी	-740
तु	-741
▁अथ	-742
▁विष	-743
▁पार	-744
लब्	-745
▁अधिनियम	-746
र्क	-747
र्ष	-748
▁रो	-749
▁धारा	-750
हार	-751
▁देता	-752
▁तब	-753
▁जाते	-754
▁अधिकार	-755
▁शु	-756
▁इसमें	-757
▁दा	-758
ेर	-759
▁राष्ट्रीय	-760
▁आर	-761
लिए	-762
ूत	-763
▁कंप	-764
भाग	-765
▁आस	-766
▁डि	-767
▁उपलब्	-768
▁योजना	-769
▁उत्पाद	-770
ियाँ	-771
ब्द	-772
पा	-773
▁जिसे	-774
▁व्यव	-775
ुनिया	-776
▁बस	-777
▁लिख	-778
▁अथवा	-779
द्योगिक	-780
an	-781
▁हे	-782
बे	-783
▁संदेश	-784
▁पश्च	-785
▁फ़ाइल	-786
▁सामान	-787
कृत	-788
ूह	-789
ताओं	-790
▁परवर	-791
वरण	-792
▁बल्	-793
▁शाम	-794
▁उससे	-795
्यान	-796
ंज	-797
दिगार	-798
मिक	-799
▁शुर	-800
▁सूचना	-801
▁क्योंकि	-802
▁दर्	-803
वान	-804
▁उनसे	-805
सं	-806
▁परवरदिगार	-807
भव	-808
क्रिया	-809
▁मार्ग	-810
▁ज्ञ	-811
▁पुर	-812
काल	-813
▁महत्व	-814
िट	-815
▁तै	-816
▁स्ट	-817
त्या	-818
tion	-819
श्व	-820
▁सकती	-821
▁लो	-822
▁बैं	-823
त्रा	-824
▁दौर	-825
धी	-826
▁संप	-827
▁मंत्र	-828
▁डाल	-829
▁शिक्षा	-830
डर	-831
▁करती	-832
▁अर्	-833
▁पहुँ	-834
▁व्याप	-835
यार	-836
▁उपलब्ध	-837
ुक	-838
▁मू	-839
ट्ट	-840
▁वृ	-841
कृति	-842
▁दूसरे	-843
▁मद	-844
▁स्थिति	-845
▁डा	-846
भिन्न	-847
ुष	-848
▁लोक	-849
▁योग	-850
▁इसलिए	-851
▁कें	-852
ंति	-853
▁जर	-854
ंजी	-855
▁संग	-856
▁बच्च	-857
▁पुन	-858
▁जिन्ह	-859
▁सहायता	-860
ोट	-861
युक्त	-862
▁छोड़	-863
नेवाल	-864
▁प्रभाव	-865
er	-866
▁उच्च	-867
▁होना	-868
ेद	-869
ंश	-870
तान	-871
▁बड़ी	-872
▁हाथ	-873
▁महा	-874
ष्टि	-875
▁जु	-876
▁वित	-877
▁उद्	-878
▁उनमें	-879
न्द्र	-880
▁अर्थ	-881
ेट	-882
▁हूं	-883
▁होगी	-884
इन	-885
क्ट	-886
ताब	-887
एस	-888
▁कभी	-889
स्तु	-890
ोप	-891
▁मेरी	-892
वाह	-893
...	-894
यं	-895
▁शामिल	-896
▁कई	-897
▁अधीन	-898
▁सके	-899
▁प्रण	-900
▁विभिन्न	-901
▁स्वा	-902
▁आया	-903
ूट	-904
र्ट	-905
्यालय	-906
▁अति	-907
ame	-908
ोह	-909
▁बल्कि	-910
ंट	-911
▁बता	-912
▁अंतर	-913
स्थान	-914
▁इससे	-915
▁दौरान	-916
▁हाल	-917
▁लिये	-918
हत	-919
▁कहते	-920
▁करके	-921
▁5	-922
▁सदस	-923
▁4	-924
तम	-925
▁किस	-926
त्मक	-927
▁आगे	-928
▁सुर	-929
▁यहाँ	-930
▁अनुस	-931
▁ब्र	-932
रूप	-933
ण्ड	-934
मुख	-935
ेम	-936
र्इ	-937
▁अनुसार	-938
▁पता	-939
कट	-940
▁दूर	-941
▁भाषा	-942
्ला	-943
▁बैठ	-944
▁कर्म	-945
▁अवसर	-946
▁जहां	-947
सल	-948
▁इसी	-949
▁भूम	-950
▁अंग	-951
▁विषय	-952
द्धि	-953
▁अभ	-954
ेह	-955
▁होंगे	-956
▁सूची	-957
▁शी	-958
▁तरफ	-959
▁ग़	-960
ासन	-961
ोजन	-962
ैन	-963
स्व	-964
▁उनको	-965
▁मुख्य	-966
▁t	-967
▁यही	-968
▁पड़	-969
▁(1	-970
▁पि	-971
दन	-972
फी	-973
▁अग	-974
शि	-975
▁याद	-976
ग्रह	-977
्म	-978
▁आई	-979
▁परिवर्	-980
▁लाभ	-981
▁सामने	-982
▁इसका	-983
pr	-984
यर	-985
जे	-986
▁शै	-987
▁जिसके	-988
मीन	-989
▁स्वी	-990
▁१	-991
▁सामान्य	-992
▁उठा	-993
▁प्रक्रिया	-994
▁पूरा	-995
ित्व	-996
और	-997
▁अनुम	-998
▁स्पष्ट	-999
▁करेगा	-1000
▁पूर्ण	-1001
▁देते	-1002
लो	-1003
कर्	-1004
▁चि	-1005
सम	-1006
▁शा	-1007
▁201	-1008
▁उसमें	-1009
▁200	-1010
▁‘	-1011
▁संबंधित	-1012
▁तैयार	-1013
▁ऋ	-1014
▁संख्या	-1015
ियो	-1016
▁पद	-1017
▁उत्तर	-1018
प्त	-1019
त्ति	-1020
▁चुन	-1021
▁संस्	-1022
▁घर	-1023
▁बाहर	-1024
▁जाएँ	-1025
▁बदल	-1026
es	-1027
▁अलग	-1028
▁जल	-1029
▁वास्तव	-1030
ंतु	-1031
▁निर्माण	-1032
जार	-1033
▁लगे	-1034
▁चाहते	-1035
▁बढ़ा	-1036
ज्य	-1037
▁प्रत्येक	-1038
सि	-1039
टना	-1040
हरा	-1041
▁भेज	-1042
लेख	-1043
तंत्र	-1044
्श	-1045
▁कान	-1046
▁आपको	-1047
▁पृ	-1048
▁कौ	-1049
ूँ	-1050
▁प्रौ	-1051
िये	-1052
ंचा	-1053
▁पत्र	-1054
ीक	-1055
▁त्र	-1056
▁नई	-1057
वास	-1058
हास	-1059
▁सुन	-1060
गम	-1061
▁रंग	-1062
्यादा	-1063
▁आद	-1064
▁पढ़	-1065
▁भर	-1066
▁अध्य	-1067
▁बनाने	-1068
▁तीन	-1069
▁अने	-1070
▁शब्द	-1071
पि	-1072
संद	-1073
र्या	-1074
▁बड़े	-1075
▁संर	-1076
▁अच्छा	-1077
ालन	-1078
▁पुस्त	-1079
▁जारी	-1080
आई	-1081
▁मौज	-1082
▁गुण	-1083
दर्श	-1084
ध्यम	-1085
छे	-1086
ोल्	-1087
▁कार्यक्रम	-1088
▁प्रार	-1089
▁नियम	-1090
▁किताब	-1091
ैर	-1092
▁पूरी	-1093
▁शुरू	-1094
▁शि	-1095
इट	-1096
▁प्रकाश	-1097
▁स्वयं	-1098
▁अत्य	-1099
▁तुम्हारी	-1100
▁आदि	-1101
▁शक्ति	-1102
बार	-1103
▁आपके	-1104
▁नीति	-1105
मंत्र	-1106
▁फै	-1107
▁प्रयास	-1108
al	-1109
▁प्रौद्योगिक	-1110
▁रखा	-1111
हम	-1112
▁रे	-1113
▁संस्था	-1114
ालय	-1115
दाय	-1116
▁पानी	-1117
▁चार	-1118
▁कॉ	-1119
ंब	-1120
टक	-1121
धे	-1122
▁ऊपर	-1123
ज़ाब	-1124
▁निश्चय	-1125
▁गये	-1126
ियोजना	-1127
टन	-1128
▁निर्धारित	-1129
पत्र	-1130
▁वस्तु	-1131
विद	-1132
▁मदद	-1133
शत	-1134
▁खुदा	-1135
म्प	-1136
▁ते	-1137
▁सौ	-1138
▁कल	-1139
▁ज्ञान	-1140
भार	-1141
▁परिण	-1142
हन	-1143
▁अनेक	-1144
▁परियोजना	-1145
▁मी	-1146
▁ली	-1147
▁तू	-1148
▁a	-1149
रती	-1150
स्थित	-1151
▁हेतु	-1152
▁मार	-1153
▁चाहता	-1154
ूं	-1155
▁सिवा	-1156
क्षित	-1157
▁जग	-1158
अप	-1159
▁गिर	-1160
▁दुनिया	-1161
ूरी	-1162
▁प्रधान	-1163
ेशक	-1164
्रो	-1165
▁वी	-1166
▁करा	-1167
▁धर्म	-1168
▁d	-1169
▁न्याया	-1170
▁गति	-1171
▁रुप	-1172
▁चला	-1173
▁बनाया	-1174
▁गयी	-1175
▁संघ	-1176
बन्	-1177
▁गो	-1178
▁महत्वपूर्ण	-1179
ृत	-1180
बाद	-1181
▁बैंक	-1182
▁उद्योग	-1183
▁स्तर	-1184
शील	-1185
▁करनेवाल	-1186
▁बन्द	-1187
▁आए	-1188
रु	-1189
र्ड	-1190
षि	-1191
▁वित्त	-1192
▁तुम्हारा	-1193
▁“	-1194
▁&	-1195
▁बेह	-1196
▁अन्त	-1197
▁जोड़	-1198
▁श्रे	-1199
▁स्क	-1200
पन	-1201
▁डर	-1202
▁प्रो	-1203
▁जिसने	-1204
▁डे	-1205
▁संस्थान	-1206
▁ध्यान	-1207
▁परिणाम	-1208
▁ज़र	-1209
▁भवन	-1210
▁करेंगे	-1211
▁मत	-1212
▁प्रमाण	-1213
▁विदेश	-1214
नीय	-1215
▁यहां	-1216
▁#	-1217
la	-1218
मित	-1219
▁देना	-1220
र्थिक	-1221
it	-1222
▁मैंने	-1223
▁बेशक	-1224
▁ठीक	-1225
▁बिना	-1226
▁देखा	-1227
▁समूह	-1228
तिहास	-1229
दिष्ट	-1230
लन	-1231
▁प्रबंध	-1232
▁नीचे	-1233
▁व्यक्त	-1234
▁प्रतिशत	-1235
निर्	-1236
ोन	-1237
ल्क	-1238
ज़ी	-1239
▁पो	-1240
▁अंतर्	-1241
▁जमा	-1242
▁क्षेत्रों	-1243
▁आवश्यकता	-1244
▁समाज	-1245
▁प्रमुख	-1246
⁄4	-1247
▁शरी	-1248
▁प्रौद्योगिकी	-1249
द्व	-1250
ोल्डर	-1251
ंख	-1252
▁सफल	-1253
▁लेख	-1254
▁बर	-1255
or	-1256
▁ज्यादा	-1257
श्	-1258
▁जिसका	-1259
ामी	-1260
▁लेकर	-1261
▁झु	-1262
▁प्रय	-1263
▁हिस्	-1264
वादी	-1265
▁पीछे	-1266
जिक	-1267
गू	-1268
▁माध्यम	-1269
▁किन्तु	-1270
विधा	-1271
▁पाठ	-1272
स्या	-1273
इस	-1274
▁जबकि	-1275
▁ज़मीन	-1276
▁मगर	-1277
क्स	-1278
भग	-1279
▁सीमा	-1280
▁सार	-1281
▁विश्वास	-1282
ख्त	-1283
▁समर्थ	-1284
म्बर	-1285
▁6	-1286
▁धरती	-1287
धारा	-1288
▁समान	-1289
▁लौ	-1290
स्प	-1291
▁दिए	-1292
▁मज	-1293
ल्म	-1294
▁कंपनी	-1295
दारी	-1296
वृ	-1297
▁ती	-1298
▁विस्त	-1299
▁अतः	-1300
▁होकर	-1301
▁खंड	-1302
▁केंद्र	-1303
▁अमे	-1304
▁आर्थिक	-1305
शो	-1306
ल्ली	-1307
▁पिछ	-1308
र्ति	-1309
▁कठ	-1310
▁विंड	-1311
▁कृषि	-1312
ंह	-1313
▁मूल्य	-1314
्यता	-1315
▁बरा	-1316
स्क	-1317
▁अम	-1318
▁उद्देश	-1319
▁अज़ाब	-1320
▁इसकी	-1321
▁आदेश	-1322
▁भे	-1323
▁चाहे	-1324
ic	-1325
ियन	-1326
▁खोल	-1327
▁कला	-1328
▁लड़	-1329
▁सुधार	-1330
उस	-1331
▁इनकार	-1332
▁वाय	-1333
गें	-1334
▁रखते	-1335
▁रोग	-1336
201	-1337
▁जनता	-1338
मता	-1339
▁तुमसे	-1340
▁जानकारी	-1341
▁भाव	-1342
▁निम्	-1343
▁श्र	-1344
▁विद्य	-1345
▁उल्	-1346
▁लगभग	-1347
विध	-1348
▁पर्या	-1349
▁बदला	-1350
▁आने	-1351
▁स्वीकार	-1352
▁जैसा	-1353
▁छा	-1354
ानों	-1355
▁अभी	-1356
▁अवधि	-1357
▁सारे	-1358
▁हिन्द	-1359
णा	-1360
▁काफी	-1361
44	-1362
ठन	-1363
बद्ध	-1364
▁चौ	-1365
▁रोक	-1366
्ले	-1367
▁समस्या	-1368
ेशन	-1369
▁निश	-1370
▁लागू	-1371
▁नियंत्र	-1372
र्फ	-1373
▁निकाल	-1374
▁मेरा	-1375
ॉल	-1376
▁साल	-1377
▁जानता	-1378
▁जगह	-1379
▁सहयोग	-1380
▁मिला	-1381
▁गण	-1382
र्च	-1383
▁वहां	-1384
ee	-1385
▁मंद	-1386
माजिक	-1387
▁पक्ष	-1388
▁तरी	-1389
▁गुना	-1390
▁सुविधा	-1391
▁अच्छे	-1392
▁k	-1393
▁विश्वविद	-1394
▁मानव	-1395
▁मध्य	-1396
▁वक्त	-1397
ूब	-1398
▁विभाग	-1399
▁क़ौ	-1400
▁ऋण	-1401
▁धन	-1402
उन	-1403
▁खोज	-1404
▁परिवर्तन	-1405
आर	-1406
▁विज्ञान	-1407
▁लक्ष	-1408
▁मामले	-1409
▁अच्छी	-1410
▁कोश	-1411
तें	-1412
▁क्रिया	-1413
▁फ़ोल्डर	-1414
▁सामाजिक	-1415
पुर	-1416
▁यू	-1417
चान	-1418
▁निकल	-1419
▁दें	-1420
▁जाएगी	-1421
▁प्रणाली	-1422
▁व्यापार	-1423
▁स्थापित	-1424
हरी	-1425
▁समाप्त	-1426
▁आम	-1427
▁अतिरिक	-1428
ृत्य	-1429
▁कुल	-1430
▁पं	-1431
डियो	-1432
▁इं	-1433
▁चयन	-1434
▁सभा	-1435
▁निम्न	-1436
▁आवश्यक	-1437
र्द	-1438
▁दक्ष	-1439
पाल	-1440
▁पहुंच	-1441
ht	-1442
▁दिल	-1443
▁फर	-1444
स्तुत	-1445
मंत्री	-1446
▁भु	-1447
▁कवि	-1448
¤3	-1449
¤3⁄4	-1450
▁घो	-1451
▁7	-1452
▁C	-1453
▁आध	-1454
▁आग	-1455
द्द	-1456
▁सिद्ध	-1457
▁वर्ग	-1458
▁यक़	-1459
▁जीव	-1460
मार	-1461
▁कहीं	-1462
▁जाओ	-1463
▁वेब	-1464
दर्शन	-1465
▁पूछ	-1466
्‍	-1467
तनी	-1468
ज़र	-1469
ंव	-1470
▁सुरक्षा	-1471
▁टे	-1472
▁उसको	-1473
▁जानते	-1474
▁बराबर	-1475
जि	-1476
▁”	-1477
न्म	-1478
चन	-1479
लत	-1480
राम	-1481
▁विवरण	-1482
तियों	-1483
दम	-1484
▁प्रती	-1485
चि	-1486
स्तान	-1487
▁कोर्इ	-1488
ान्त	-1489
हरण	-1490
जों	-1491
डा	-1492
ंदर	-1493
▁मर	-1494
▁जिससे	-1495
▁चे	-1496
▁18	-1497
▁स्थित	-1498
कु	-1499
▁रहने	-1500
र्स	-1501
▁टी	-1502
पना	-1503
िश्त	-1504
ंधान	-1505
एम	-1506
▁:	-1507
▁निर्ण	-1508
44;	-1509
▁#44;	-1510
धित	-1511
▁डी	-1512
▁अतिरिक्त	-1513
▁पे	-1514
बल	-1515
▁उदा	-1516
▁महिला	-1517
फा	-1518
▁रहते	-1519
▁देशों	-1520
▁क़ौम	-1521
बू	-1522
▁अल	-1523
▁विन	-1524
▁नया	-1525
op	-1526
▁8	-1527
ीकरण	-1528
▁आकार	-1529
जर	-1530
▁नए	-1531
भर	-1532
▁चुका	-1533
▁सन्	-1534
▁चुके	-1535
▁सच्च	-1536
▁अंतर्गत	-1537
▁तुमने	-1538
मि	-1539
ेंट	-1540
▁कहने	-1541
कृतिक	-1542
▁लेने	-1543
▁कर्	-1544
▁संवि	-1545
डे	-1546
पन्न	-1547
▁पड़े	-1548
▁राम	-1549
वाई	-1550
▁सही	-1551
▁हिंद	-1552
▁उत्पादन	-1553
¥	-1554
▁संस	-1555
ष्ट्रीय	-1556
▁लाए	-1557
▁रखने	-1558
ेशा	-1559
▁जाये	-1560
▁अनुसंधान	-1561
ab	-1562
▁मंदिर	-1563
▁आकाश	-1564
▁ज़ि	-1565
वेदन	-1566
प्	-1567
▁एन	-1568
▁तु	-1569
क्ता	-1570
▁यातना	-1571
▁0	-1572
▁अप्र	-1573
▁खेल	-1574
▁त्रुट	-1575
▁इन्	-1576
तार	-1577
ट्टी	-1578
▁नही	-1579
सित	-1580
िष्ट	-1581
बो	-1582
ग्री	-1583
रोध	-1584
तमान	-1585
▁उठ	-1586
पूर्व	-1587
▁बुरा	-1588
ंधी	-1589
▁%	-1590
▁उद्देश्य	-1591
ष्ण	-1592
en	-1593
▁महान	-1594
▁राशि	-1595
▁यात्रा	-1596
▁व्यवस्था	-1597
▁।	-1598
▁सां	-1599
▁माँ	-1600
क्षम	-1601
▁क्षमता	-1602
▁वालों	-1603
▁निवेश	-1604
▁S	-1605
▁बहु	-1606
▁भू	-1607
▁प्रदेश	-1608
▁पत्	-1609
▁पृष्ठ	-1610
▁निस्	-1611
हित्य	-1612
▁विधि	-1613
▁बचा	-1614
▁बाल	-1615
ठला	-1616
स्थ्य	-1617
▁परी	-1618
▁उपधारा	-1619
▁जिन्हें	-1620
▁-	-1621
▁एस	-1622
कर्ता	-1623
▁सदस्य	-1624
▁निष्	-1625
▁परन्तु	-1626
▁संपर्क	-1627
▁अधिकारी	-1628
▁''	-1629
▁प्रारंभ	-1630
ot	-1631
▁रि	-1632
▁मनुष	-1633
▁समु	-1634
ूरत	-1635
▁राह	-1636
▁मूसा	-1637
▁वर्षों	-1638
▁वर्तमान	-1639
क्म	-1640
ोस	-1641
▁बनाए	-1642
ोर्ट	-1643
त्मा	-1644
▁विशिष्ट	-1645
षित	-1646
▁युद्ध	-1647
श्र	-1648
▁इतिहास	-1649
▁सिर्फ	-1650
▁वाप	-1651
ज्	-1652
▁परिवार	-1653
ख़िर	-1654
▁स्वतंत्र	-1655
▁थीं	-1656
▁सत्य	-1657
▁आरंभ	-1658
यान	-1659
▁निर्देश	-1660
▁अर	-1661
▁कौन	-1662
दर	-1663
▁प्रस्तुत	-1664
धारण	-1665
▁वर्ण	-1666
▁दूसरी	-1667
▁तुमको	-1668
▁त्रुटि	-1669
▁न्याय	-1670
¤	-1671
¤°	-1672
▁_	-1673
▁न्यायालय	-1674
▁सका	-1675
gm	-1676
▁<	-1677
▁झुठला	-1678
▁वहाँ	-1679
▁साहित्य	-1680
ांत	-1681
थम	-1682
▁२	-1683
मिल	-1684
▁पेश	-1685
गल	-1686
▁हमारा	-1687
▁दृष्टि	-1688
जो	-1689
भू	-1690
गु	-1691
▁प्रशिक्ष	-1692
▁स्वास्थ्य	-1693
▁दिल्ली	-1694
रिका	-1695
▁चा	-1696
सलमान	-1697
▁हुक्म	-1698
जित	-1699
ii	-1700
▁आन	-1701
▁kgm	-1702
▁शहर	-1703
▁शरीर	-1704
तक	-1705
le	-1706
जरा	-1707
▁शे	-1708
▁अपे	-1709
▁प्रधानमंत्री	-1710
ानीय	-1711
००	-1712
▁देगा	-1713
ar	-1714
▁थो	-1715
▁10	-1716
▁लाख	-1717
▁देखते	-1718
▁रात	-1719
▁वास्ते	-1720
▁दक्षि	-1721
▁बच्चों	-1722
▁जिनके	-1723
▁बेहतर	-1724
▁शिक	-1725
▁विश्वविद्यालय	-1726
▁चित्र	-1727
कम	-1728
▁तौर	-1729
ोजित	-1730
▁श्रेणी	-1731
▁आसमान	-1732
खित	-1733
नाथ	-1734
झा	-1735
▁निर	-1736
▁कैसे	-1737
लू	-1738
▁अंग्रे	-1739
ran	-1740
ंतिम	-1741
रि	-1742
at	-1743
निश्च	-1744
▁घटना	-1745
बत	-1746
▁अमेरिका	-1747
▁(2	-1748
Name	-1749
क्षर	-1750
्रिय	-1751
▁सम्बन्	-1752
▁एक्स	-1753
तने	-1754
▁संसा	-1755
वाब	-1756
▁भि	-1757
ैस	-1758
▁शीर्ष	-1759
▁हमेशा	-1760
▁निर्णय	-1761
ुओं	-1762
▁विकसित	-1763
▁जिन्होंने	-1764
▁स्थानीय	-1765
लाई	-1766
▁सेट	-1767
-1	-1768
▁तहत	-1769
तो	-1770
संदेह	-1771
▁भूमि	-1772
▁उदाहरण	-1773
▁name	-1774
▁नौ	-1775
),	-1776
▁काल	-1777
ड़ों	-1778
▁प्रस्ता	-1779
▁रू	-1780
▁प्रस	-1781
ज्ञा	-1782
▁बंद	-1783
▁मिले	-1784
शिया	-1785
▁हाला	-1786
▁सर्	-1787
▁दया	-1788
▁हक़	-1789
रीब	-1790
▁अला	-1791
▁निर्धारण	-1792
▁विदेशी	-1793
शल	-1794
▁अनि	-1795
▁भेजा	-1796
▁बंग	-1797
मन	-1798
गति	-1799
▁प्रेम	-1800
ज़िल	-1801
▁दस्ता	-1802
▁अंतिम	-1803
▁बल	-1804
ष्य	-1805
▁मौजूद	-1806
▁A	-1807
▁चिक	-1808
▁अनुभव	-1809
्याल	-1810
र्जा	-1811
साय	-1812
▁उन्	-1813
ंगा	-1814
▁पक	-1815
▁परंतु	-1816
▁छोटे	-1817
▁प्रस्ताव	-1818
▁रचना	-1819
▁सार्व	-1820
▁निश्चित	-1821
वासी	-1822
▁प्रवेश	-1823
▁संच	-1824
000	-1825
▁लगता	-1826
▁भूमिका	-1827
च्छा	-1828
▁मांग	-1829
▁दिशा	-1830
▁प्राधिक	-1831
दू	-1832
फिर	-1833
▁जहाँ	-1834
राही	-1835
▁किये	-1836
▁गांधी	-1837
▁तत्व	-1838
▁इस्ला	-1839
सू	-1840
▁लं	-1841
ोगे	-1842
¥	-1843
▁बोल	-1844
▁रिप	-1845
▁अफ	-1846
ील	-1847
▁पहचान	-1848
▁रहता	-1849
▁निस्संदेह	-1850
▁भाई	-1851
▁सक्रिय	-1852
▁अनुमति	-1853
▁वाद	-1854
्रेस	-1855
यां	-1856
▁पाया	-1857
▁संयुक्त	-1858
▁इंड	-1859
▁छवि	-1860
▁जन्म	-1861
दारों	-1862
▁दुर्	-1863
▁जिसकी	-1864
ैंड	-1865
ेंस	-1866
▁नव	-1867
यात	-1868
ोक्ता	-1869
▁इस्त	-1870
▁आधारित	-1871
▁घा	-1872
▁माना	-1873
▁जह	-1874
▁विस्तार	-1875
हे	-1876
▁9	-1877
▁c	-1878
▁वार	-1879
▁नागर	-1880
▁राजनी	-1881
▁पहुँच	-1882
▁दस्तावे	-1883
▁जल्	-1884
▁कृप	-1885
▁नियंत्रण	-1886
▁लक्ष्य	-1887
▁विकल्प	-1888
▁संबंधी	-1889
▁निर्दिष्ट	-1890
लिखित	-1891
▁यक़ीन	-1892
िकों	-1893
स्म	-1894
एल	-1895
▁वित्तीय	-1896
▁संक	-1897
दय	-1898
▁संभव	-1899
ार्ड	-1900
▁हिस्सा	-1901
option	-1902
▁बाजार	-1903
▁मित्र	-1904
▁स्थापना	-1905
▁गर्	-1906
वरी	-1907
▁मंत्रालय	-1908
▁कमी	-1909
ुनिक	-1910
▁जांच	-1911
मू	-1912
जह	-1913
▁15	-1914
वस्था	-1915
्राम	-1916
वीं	-1917
ृत्यु	-1918
▁अग्र	-1919
▁सहायक	-1920
▁मनुष्य	-1921
▁तकनी	-1922
ंतर	-1923
्टी	-1924
▁सोच	-1925
▁पहुँचा	-1926
न्ट	-1927
▁I	-1928
▁पुकार	-1929
▁बच	-1930
▁डाक	-1931
▁संविधान	-1932
चल	-1933
▁गुम	-1934
साइट	-1935
is	-1936
▁प्रथम	-1937
▁सिंह	-1938
▁प्रगति	-1939
▁झू	-1940
सान	-1941
▁वृद्धि	-1942
ंगे	-1943
म्मे	-1944
▁फल	-1945
▁लेते	-1946
▁तंत्र	-1947
▁अधि	-1948
▁प्रबंधन	-1949
▁नाज़िल	-1950
गि	-1951
.201	-1952
▁20	-1953
▁समिति	-1954
ंसा	-1955
▁दिनों	-1956
घा	-1957
▁पहली	-1958
▁केन्द्र	-1959
▁अलावा	-1960
गतान	-1961
▁उपकरण	-1962
निश्चित	-1963
▁पिछले	-1964
▁ट्र	-1965
rans	-1966
यामत	-1967
▁मृत्यु	-1968
र्श	-1969
▁मॉ	-1970
ानि	-1971
▁शो	-1972
स्थिति	-1973
यु	-1974
▁सहित	-1975
▁लें	-1976
▁जाय	-1977
▁रखता	-1978
र्जी	-1979
▁कृपया	-1980
▁उत्पन्न	-1981
▁गुनाह	-1982
▁सेना	-1983
▁समर्थन	-1984
पट	-1985
▁भीतर	-1986
▁खाता	-1987
ँच	-1988
▁न्यू	-1989
▁विंडो	-1990
▁पुस्तक	-1991
न्यास	-1992
▁मही	-1993
▁पूंजी	-1994
पण	-1995
द्रा	-1996
▁अध्ययन	-1997
▁पुनः	-1998
▁हटा	-1999
▁प्रश्न	-2000
▁मंत्री	-2001
शाली	-2002
▁एम	-2003
▁देव	-2004
▁खे	-2005
ransla	-2006
ज़े	-2007
▁12	-2008
▁सुनिश्चित	-2009
▁मिटा	-2010
optional	-2011
▁निशान	-2012
▁संभाव	-2013
▁चिकित	-2014
▁सर्वर	-2015
▁प्रशिक्षण	-2016
िको	-2017
▁आत्म	-2018
▁199	-2019
▁भुगतान	-2020
▁योग्य	-2021
्रोत	-2022
ौती	-2023
▁फ़र	-2024
▁ति	-2025
स्ती	-2026
▁राजा	-2027
▁तुल	-2028
▁क्षमा	-2029
ापन	-2030
▁अनुप	-2031
शु	-2032
▁pr	-2033
▁ऊर्जा	-2034
▁वास्तविक	-2035
बान	-2036
▁मात्रा	-2037
▁दक्षिण	-2038
▁सफलता	-2039
्ष्	-2040
▁@	-2041
▁चाल	-2042
▁समुदा	-2043
▁धार	-2044
▁भावना	-2045
तुम	-2046
▁लिखा	-2047
▁संग्रह	-2048
▁पौ	-2049
जनिक	-2050
▁ख़ु	-2051
▁आदमी	-2052
स्कार	-2053
▁हैः	-2054
▁भिन्न	-2055
▁कांग	-2056
गाह	-2057
▁उपबंध	-2058
पु	-2059
▁सत्ता	-2060
▁सरकारी	-2061
▁आधुनिक	-2062
क्या	-2063
▁आख़िर	-2064
▁transla	-2065
?"	-2066
ेमाल	-2067
▁मुसलमान	-2068
▁हित	-2069
ुआ	-2070
▁जाएँगे	-2071
▁बिल	-2072
म्ब	-2073
वाले	-2074
▁उनपर	-2075
▁इस्तेमाल	-2076
▁पुरा	-2077
ण्श	-2078
▁11	-2079
ऊण्श	-2080
्छ्ष्	-2081
ऊण्श्छ्ष्	-2082
त्सा	-2083
▁फाइल	-2084
▁दाय	-2085
▁वेबसाइट	-2086
▁(1)	-2087
▁वापस	-2088
▁राज्यों	-2089
▁बच्चे	-2090
▁सिर	-2091
▁मुक़	-2092
▁रिपोर्ट	-2093
ियान	-2094
ैल	-2095
ँह	-2096
गो	-2097
▁चुनें	-2098
▁खुल	-2099
▁जैसी	-2100
ly	-2101
▁प्रे	-2102
पे	-2103
स्ति	-2104
▁युवा	-2105
वस	-2106
विष्य	-2107
re	-2108
▁खो	-2109
om	-2110
▁सम्मान	-2111
▁खाते	-2112
▁खुद	-2113
▁प्रदर्श	-2114
▁सार्वजनिक	-2115
▁कट	-2116
▁क्ल	-2117
▁कप	-2118
▁सुना	-2119
▁उम्	-2120
▁वन	-2121
द्रीय	-2122
▁वो	-2123
▁मामलों	-2124
खी	-2125
▁आक	-2126
भूत	-2127
▁पूरे	-2128
▁हस्ता	-2129
▁पुरुष	-2130
▁उद्य	-2131
▁दृश्य	-2132
▁कमा	-2133
▁रहो	-2134
▁प्रकृति	-2135
ंथ	-2136
▁अह	-2137
▁साफ	-2138
▁मश	-2139
▁अत्यन्त	-2140
▁भविष्य	-2141
▁जे	-2142
▁उल्लेख	-2143
राह	-2144
निक	-2145
ामीण	-2146
▁यूर	-2147
▁निकट	-2148
▁मालूम	-2149
▁कम्प	-2150
▁चले	-2151
▁संपाद	-2152
▁खरी	-2153
▁जहन्न	-2154
▁बातें	-2155
▁संगठन	-2156
▁शासन	-2157
▁शुभ	-2158
▁संशो	-2159
▁आत	-2160
▁कोशिश	-2161
्यूटर	-2162
ख्स	-2163
▁यक़ीनन	-2164
ायद	-2165
ग़म्बर	-2166
▁जरूरत	-2167
▁बातों	-2168
ारों	-2169
▁गुर	-2170
▁दिखाएँ	-2171
नाव	-2172
र्चा	-2173
त्त्व	-2174
▁खिला	-2175
▁लाल	-2176
▁सत	-2177
ity	-2178
तृ	-2179
फ्	-2180
▁डॉ	-2181
▁सदस्यों	-2182
ंडल	-2183
▁वैज्ञान	-2184
बूत	-2185
श्वर	-2186
▁संके	-2187
▁पस	-2188
ob	-2189
चर	-2190
ारोह	-2191
▁अन्	-2192
▁शख्स	-2193
▁करोड़	-2194
िब	-2195
▁ग्रामीण	-2196
▁ढा	-2197
वाही	-2198
.0	-2199
▁संसद	-2200
▁विनिर्	-2201
▁जिनमें	-2202
▁ऑफ	-2203
▁सक्षम	-2204
▁नदी	-2205
लाइन	-2206
एक	-2207
मय	-2208
▁छिप	-2209
चारी	-2210
▁कानून	-2211
▁सामग्री	-2212
▁अपेक्षा	-2213
▁उचित	-2214
एफ	-2215
म्भ	-2216
▁लॉ	-2217
▁पर्य	-2218
▁समझा	-2219
▁देखने	-2220
ल्ल	-2221
▁गी	-2222
▁पहा	-2223
//	-2224
▁नेट	-2225
ड़क	-2226
▁बने	-2227
▁प्रशासन	-2228
▁तारी	-2229
▁̧	-2230
वर्ष	-2231
दर्भ	-2232
▁कहो	-2233
▁अपरा	-2234
▁संरचना	-2235
▁ईसा	-2236
र्ग	-2237
▁समारोह	-2238
▁रिक	-2239
▁इतना	-2240
गीत	-2241
▁जित	-2242
▁जवाब	-2243
▁केंद्रीय	-2244
काम	-2245
▁प्रकट	-2246
▁बाज़	-2247
▁दिखाई	-2248
--	-2249
▁पश्चात	-2250
▁M	-2251
▁P	-2252
▁'%	-2253
¤¿	-2254
▁व्यापक	-2255
▁अध्यक्ष	-2256
he	-2257
▁स्कूल	-2258
▁देती	-2259
▁पुरस्कार	-2260
▁री	-2261
▁संदर्भ	-2262
▁प्रतिनि	-2263
▁काफ़	-2264
▁रक्षा	-2265
मह	-2266
प्रे	-2267
▁बाप	-2268
▁हास	-2269
▁मुँह	-2270
टल	-2271
वालों	-2272
▁तौ	-2273
थमिक	-2274
▁टै	-2275
च्छेद	-2276
ीप	-2277
▁दशा	-2278
▁रोज	-2279
▁बयान	-2280
▁गांव	-2281
▁प्रोत्सा	-2282
▁निर्यात	-2283
ृह	-2284
://	-2285
-#	-2286
▁बुला	-2287
▁खाद	-2288
▁इनमें	-2289
टों	-2290
श्त	-2291
▁आँ	-2292
पूर्वक	-2293
▁पड़ा	-2294
▁गैर	-2295
▁वजह	-2296
ोग्राम	-2297
▁सहेज	-2298
बह	-2299
▁कांग्रेस	-2300
सत	-2301
▁योगदान	-2302
▁औद्योगिक	-2303
वधान	-2304
बि	-2305
▁बदले	-2306
▁अधिका	-2307
ंगी	-2308
▁मुद्रा	-2309
ैक	-2310
▁do	-2311
▁दौ	-2312
▁शायद	-2313
▁मुझ	-2314
▁प्राय	-2315
▁लौट	-2316
▁पथ	-2317
▁translation	-2318
▁सर्वो	-2319
tp	-2320
ंकन	-2321
ख़ुदा	-2322
¤	-2323
चीन	-2324
▁डिस्क	-2325
▁ठहरा	-2326
▁निजी	-2327
▁आवेदन	-2328
कान	-2329
▁प्राथमिक	-2330
▁स्वतंत्रता	-2331
▁किंतु	-2332
▁पालन	-2333
▁चाहिये	-2334
▁आयु	-2335
ल्पना	-2336
▁शर्	-2337
वर्ती	-2338
eed	-2339
▁रखना	-2340
▁केन्द	-2341
▁रहेंगे	-2342
ैतिक	-2343
▁not	-2344
▁̈	-2345
एन	-2346
▁रखो	-2347
▁आतंक	-2348
▁आयतों	-2349
▁प्रतिक	-2350
▁लेखा	-2351
राज	-2352
▁ध्व	-2353
▁यूरोप	-2354
▁उल	-2355
▁रखे	-2356
रुद्ध	-2357
्वी	-2358
▁एशिया	-2359
▁चयनित	-2360
http	-2361
▁अर्था	-2362
▁रेल	-2363
▁संस्कृति	-2364
▁भग	-2365
दृ	-2366
रल	-2367
▁संगीत	-2368
▁आयात	-2369
र्न	-2370
घु	-2371
▁इस्लाम	-2372
▁प्रभा	-2373
वत	-2374
▁need	-2375
▁किन	-2376
क्रमण	-2377
▁लागत	-2378
▁अवश्य	-2379
▁व्यक्तियों	-2380
▁T	-2381
▁सृ	-2382
▁बोर्ड	-2383
▁तय	-2384
ूदा	-2385
▁उद्यम	-2386
▁रकम	-2387
▁आशा	-2388
पक	-2389
ृति	-2390
खंड	-2391
▁इब	-2392
वर्क	-2393
▁राय	-2394
लिस	-2395
न्व	-2396
ड़ाई	-2397
▁निदेश	-2398
▁आयोजित	-2399
लब	-2400
▁कार्यालय	-2401
▁बज	-2402
▁आवा	-2403
▁विधान	-2404
सिक	-2405
▁शता	-2406
▁दश	-2407
ोलन	-2408
▁ढंग	-2409
▁तत्	-2410
▁पांच	-2411
▁प्रभावित	-2412
फर	-2413
▁सकें	-2414
लाम	-2415
▁डाला	-2416
मेल	-2417
मो	-2418
नेवाला	-2419
िकी	-2420
▁दल	-2421
▁पर्याप्त	-2422
▁बंगाल	-2423
▁प्रकाशित	-2424
▁भौ	-2425
्सा	-2426
सन	-2427
▁अध्या	-2428
▁निधि	-2429
▁http	-2430
▁दूसरा	-2431
▁अवस्था	-2432
st	-2433
▁मुक्त	-2434
▁स्रोत	-2435
▁समुदाय	-2436
इयों	-2437
▁व्यवहार	-2438
▁असम	-2439
▁निर्धारिती	-2440
▁शांति	-2441
परी	-2442
सु	-2443
▁does	-2444
मक	-2445
ably	-2446
थि	-2447
▁झूठ	-2448
▁prob	-2449
nt	-2450
▁196	-2451
▁ब्या	-2452
▁probably	-2453
▁पाल	-2454
नेवाले	-2455
▁देंगे	-2456
▁राजनीतिक	-2457
▁नर	-2458
▁विभा	-2459
िल्म	-2460
▁हल	-2461
ड्ड	-2462
▁सलाह	-2463
▁हासिल	-2464
ुता	-2465
माज़	-2466
द्यपि	-2467
▁चुकी	-2468
फ्त	-2469
स्‍	-2470
▁बनी	-2471
▁पर्यावरण	-2472
▁मुखर्जी	-2473
क्का	-2474
▁प्रभ	-2475
कला	-2476
राष्ट्रीय	-2477
नो	-2478
▁चर	-2479
▁दिवस	-2480
ol	-2481
▁रक्त	-2482
ou	-2483
▁निम्नलिखित	-2484
ग्	-2485
रीय	-2486
▁गि	-2487
▁अनुप्र	-2488
▁सुरक्षित	-2489
स्पर	-2490
▁असफल	-2491
राज्य	-2492
कत	-2493
City	-2494
▁संय	-2495
▁तीस	-2496
षद	-2497
नेट	-2498
▁केन्द्रीय	-2499
▁लाने	-2500
):	-2501
▁भारी	-2502
फ्ट	-2503
▁दृष्ट	-2504
▁चर्चा	-2505
▁संरक्षण	-2506
▁पदार्थ	-2507
ालिम	-2508
▁सेवाओं	-2509
▁̧à	-2510
कल	-2511
मीद	-2512
ियर	-2513
क्षक	-2514
▁धी	-2515
डिया	-2516
▁समझौ	-2517
घ्र	-2518
धाई	-2519
▁यद्यपि	-2520
▁आपकी	-2521
पो	-2522
्टर	-2523
▁तेल	-2524
▁सीधे	-2525
स्त्र	-2526
▁क्रम	-2527
▁बैठक	-2528
▁प्रमाणपत्र	-2529
ंद्र	-2530
▁कहना	-2531
कारा	-2532
वत्ता	-2533
ैव	-2534
्यो	-2535
▁इका	-2536
▁अनुक	-2537
▁शब्दों	-2538
▁विशाल	-2539
▁बाग़	-2540
▁आत्मा	-2541
▁डेटा	-2542
दूस	-2543
▁साह	-2544
▁आता	-2545
▁दिख	-2546
se	-2547
▁फरमा	-2548
▁दू	-2549
▁बधाई	-2550
-2	-2551
भाल	-2552
▁आयोग	-2553
▁नगर	-2554
भीर	-2555
हाद	-2556
िक्	-2557
बाह	-2558
▁पेट	-2559
▁सिद्धांत	-2560
ंबर	-2561
▁तरीके	-2562
▁यथा	-2563
हीन	-2564
▁भागी	-2565
व्यवस्था	-2566
▁कदम	-2567
▁उत	-2568
▁पंजी	-2569
त्तर	-2570
कीय	-2571
▁विरुद्ध	-2572
▁ख़बर	-2573
▁क़ुर	-2574
▁बढ	-2575
▁संसाधन	-2576
▁उपस्थित	-2577
of	-2578
ंदा	-2579
क्टर	-2580
क्शन	-2581
णि	-2582
▁p	-2583
▁दस	-2584
▁छोटी	-2585
यल	-2586
▁पल	-2587
दो	-2588
▁D	-2589
▁सच	-2590
▁पैग़म्बर	-2591
▁गिरोह	-2592
धनों	-2593
▁अनिवार	-2594
भूति	-2595
यक	-2596
षणा	-2597
▁बैठे	-2598
▁एह	-2599
▁पृथ	-2600
▁ज़ालिम	-2601
ज्ञात	-2602
▁अत्या	-2603
▁गुणवत्ता	-2604
▁छोड़कर	-2605
▁प्रदर्शन	-2606
▁मशीन	-2607
किंग	-2608
लिम	-2609
▁पसंद	-2610
ार्मिक	-2611
▁रखी	-2612
▁जिला	-2613
▁प्राकृतिक	-2614
▁भंड	-2615
▁स्म	-2616
▁विविध	-2617
▁१९	-2618
▁छात्र	-2619
▁नेटवर्क	-2620
▁{	-2621
न्दर	-2622
प्ता	-2623
▁प्रभावी	-2624
उट	-2625
चक	-2626
▁जाति	-2627
▁प्राचीन	-2628
▁25	-2629
वाला	-2630
यह	-2631
▁सख्त	-2632
▁सम्बन्ध	-2633
ल्लाह	-2634
▁बताया	-2635
वेयर	-2636
.1	-2637
न्स	-2638
▁अंक	-2639
▁आते	-2640
▁अता	-2641
▁लघु	-2642
▁पकड़	-2643
▁नमाज़	-2644
ब्दी	-2645
▁उपाय	-2646
▁पर्व	-2647
her	-2648
▁अधिकांश	-2649
ल्ड	-2650
▁प्रसन्न	-2651
▁भोजन	-2652
▁इच्छा	-2653
▁मेहर	-2654
▁पश्चिम	-2655
▁तुलना	-2656
त्री	-2657
▁आंद	-2658
▁इला	-2659
▁विद्यार्थ	-2660
रज़	-2661
▁हट	-2662
मेलन	-2663
▁समृ	-2664
चारियों	-2665
▁बौ	-2666
▁अगले	-2667
धिकार	-2668
nic	-2669
▁ज़रूर	-2670
▁महारा	-2671
फे	-2672
▁अनिवार्य	-2673
▁शिकाय	-2674
▁गतिविध	-2675
▁धार्मिक	-2676
¤2	-2677
▁b	-2678
▁वर्णन	-2679
▁16	-2680
▁गर्इ	-2681
▁रखें	-2682
थर	-2683
ंकि	-2684
कारों	-2685
▁(19	-2686
वह	-2687
▁195	-2688
▁वैज्ञानिक	-2689
▁वायु	-2690
जूद	-2691
न्दा	-2692
▁मना	-2693
▁बनाना	-2694
▁समाधान	-2695
▁परीक्षा	-2696
▁कंप्यूटर	-2697
्ब	-2698
▁प्रोग्राम	-2699
▁ऊँ	-2700
▁हस्ताक्षर	-2701
▁F	-2702
▁लेना	-2703
▁बन्दों	-2704
▁शक	-2705
ह्न	-2706
▁हृ	-2707
▁पश्चा	-2708
एगा	-2709
दायत	-2710
▁अधिकारियों	-2711
▁लगी	-2712
▁ग्रह	-2713
▁वीडियो	-2714
▁[	-2715
il	-2716
▁ब्याज	-2717
▁विज	-2718
रित	-2719
▁अक	-2720
याँ	-2721
ल्स	-2722
▁आपका	-2723
▁जोड़ें	-2724
स्य	-2725
▁मिली	-2726
▁मुह	-2727
▁मोह	-2728
खे	-2729
्रीन	-2730
▁खड़े	-2731
ेप	-2732
▁संभावना	-2733
▁सम्मेलन	-2734
▁कूट	-2735
▁मिलता	-2736
▁अक्	-2737
▁ईश्वर	-2738
▁शीघ्र	-2739
▁संस्थानों	-2740
यें	-2741
▁कुंजी	-2742
▁तुमपर	-2743
▁उन्हीं	-2744
नाम	-2745
राहीम	-2746
▁जल्दी	-2747
▁आख़िरत	-2748
▁पाने	-2749
▁दबा	-2750
▁वाक़	-2751
साथ	-2752
▁संपत्ति	-2753
रू	-2754
▁पद्ध	-2755
झी	-2756
ंपरा	-2757
ज़ार	-2758
्वा	-2759
ल्कुल	-2760
▁सात	-2761
▁शैली	-2762
▁दर्शा	-2763
रान	-2764
▁उम्मीद	-2765
▁मजबूत	-2766
▁198	-2767
▁तुममें	-2768
स्लिम	-2769
न्नत	-2770
▁आती	-2771
▁उपभ	-2772
▁करनी	-2773
औन	-2774
▁चीज	-2775
ाई	-2776
▁B	-2777
संग	-2778
▁प्रणब	-2779
ोजनों	-2780
▁बर्	-2781
▁तारीख	-2782
▁वैश्व	-2783
▁G	-2784
ार्क	-2785
िकोण	-2786
▁हिन्दी	-2787
▁कविता	-2788
▁पुनर्	-2789
वों	-2790
ेगा	-2791
स्टम	-2792
▁संसार	-2793
▁समझते	-2794
▁ब्रिट	-2795
¤1	-2796
▁छु	-2797
स्टर	-2798
ॉप	-2799
▁श्रेणीः	-2800
▁चिकित्सा	-2801
▁खरीद	-2802
▁हालत	-2803
▁कने	-2804
िश्ते	-2805
▁जरूरी	-2806
▁कार्यों	-2807
▁रहती	-2808
et	-2809
▁एज	-2810
▁गं	-2811
,000	-2812
▁पहल	-2813
स्वरूप	-2814
▁स्त्र	-2815
▁खर्च	-2816
▁सम्मिल	-2817
ँकि	-2818
▁डरा	-2819
▁इन्ह	-2820
▁दिलों	-2821
मेंट	-2822
▁अंश	-2823
▁हिदायत	-2824
धियों	-2825
▁विद	-2826
▁मानते	-2827
▁पुलिस	-2828
▁रहना	-2829
▁सित	-2830
ठित	-2831
▁सीमित	-2832
्वेष	-2833
बु	-2834
ठी	-2835
्प	-2836
जली	-2837
▁पिता	-2838
कालीन	-2839
▁तथ	-2840
विक	-2841
▁अनुप्रयोग	-2842
▁निर्भर	-2843
ww	-2844
▁सैन	-2845
▁निर्मित	-2846
▁ब्रिटिश	-2847
▁हजार	-2848
ालित	-2849
-#-#	-2850
▁सारी	-2851
▁जहन्नुम	-2852
▁भंडार	-2853
▁फेर	-2854
▁विफल	-2855
शय	-2856
▁युग	-2857
सिद्ध	-2858
▁वार्ष	-2859
▁साधारण	-2860
▁करनेवालों	-2861
ब्र	-2862
▁परंपरा	-2863
▁बिल्कुल	-2864
▁रास्त	-2865
▁इबराहीम	-2866
▁पहुंचा	-2867
▁दुख	-2868
▁नो	-2869
▁प्रवि	-2870
देव	-2871
▁अपील	-2872
▁आपने	-2873
▁भगवान	-2874
▁छोटा	-2875
htm	-2876
दर्शी	-2877
▁गलत	-2878
▁शाखा	-2879
▁शताब्दी	-2880
▁बख	-2881
▁अर्थव्यवस्था	-2882
▁m	-2883
▁संकेत	-2884
डल	-2885
राब	-2886
▁ताल	-2887
मीर	-2888
▁परिच	-2889
▁संशोधन	-2890
तया	-2891
▁भ्र	-2892
▁194	-2893
▁13	-2894
▁आदर्श	-2895
▁नसी	-2896
▁किसानों	-2897
अपने	-2898
्राष्ट्रीय	-2899
▁शेष	-2900
▁अभिलेख	-2901
म्म	-2902
▁R	-2903
्यालयों	-2904
▁सच्चे	-2905
▁विरोध	-2906
▁विचारों	-2907
▁तरफ़	-2908
▁शैतान	-2909
▁प्रतिष्ठ	-2910
▁हवा	-2911
वृत्ति	-2912
▁प्रदर्शित	-2913
▁व्यक्तिगत	-2914
▁खुलती	-2915
▁मौजूदा	-2916
▁अंदर	-2917
▁अत्यंत	-2918
▁एव	-2919
कात	-2920
भूम	-2921
▁समुद्र	-2922
▁निर्वा	-2923
स्कृतिक	-2924
▁आंदोलन	-2925
▁प्रयोजनों	-2926
ंगल	-2927
म्र	-2928
ध्या	-2929
▁महीने	-2930
▁197	-2931
▁अप्रैल	-2932
▁संघर्ष	-2933
धर	-2934
▁विंडों	-2935
▁इंटर	-2936
▁फी	-2937
▁शक़	-2938
▁सम्मिलित	-2939
्‍य	-2940
▁निगम	-2941
▁14	-2942
दूसरे	-2943
▁अंग्रेजी	-2944
वै	-2945
▁नेता	-2946
सब	-2947
▁सत्या	-2948
ब्ल	-2949
▁विद्व	-2950
▁f	-2951
▁कठिन	-2952
▁कीमत	-2953
▁मुस्लिम	-2954
लग्न	-2955
▁L	-2956
कुल	-2957
ताल	-2958
▁काट	-2959
▁स्थायी	-2960
िना	-2961
▁̈à	-2962
▁नागरिक	-2963
▁सदैव	-2964
▁बढ़ाने	-2965
▁विवाह	-2966
▁घट	-2967
▁चरण	-2968
तरा	-2969
ल्ला	-2970
▁1.	-2971
्रेड	-2972
ेक्ट	-2973
▁बुद्धि	-2974
▁चढ़	-2975
हरे	-2976
▁इंडिया	-2977
▁लगाया	-2978
परि	-2979
▁फैला	-2980
▁महत्त्व	-2981
िमी	-2982
ष्ट्र	-2983
ियत	-2984
जनक	-2985
▁जोर	-2986
▁रहेगा	-2987
▁आकाशों	-2988
▁नोट	-2989
▁तेजी	-2990
▁जिम्मे	-2991
न्त्र	-2992
▁झग	-2993
गिज़	-2994
▁शुल्क	-2995
ार्म	-2996
्यान्व	-2997
▁मार्च	-2998
▁मिट्टी	-2999
aà	-3000
▁घोषणा	-3001
▁पहला	-3002
ment	-3003
di	-3004
▁N	-3005
▁जाँच	-3006
▁खास	-3007
▁अनुच्छेद	-3008
▁एल	-3009
▁संत	-3010
मैं	-3011
▁भली	-3012
▁मिस	-3013
▁जिसको	-3014
साद	-3015
▁नये	-3016
▁हालाँकि	-3017
▁कार्यान्व	-3018
▁(2)	-3019
दाता	-3020
▁आंक	-3021
▁निशानियाँ	-3022
▁प्रत्यक्ष	-3023
▁दृष्टिकोण	-3024
▁लेखक	-3025
▁कहेंगे	-3026
ra	-3027
▁व्यय	-3028
ाब	-3029
▁U	-3030
▁सज़ा	-3031
▁परिषद	-3032
▁फिल	-3033
▁दायित्व	-3034
भूमि	-3035
▁चुनाव	-3036
▁सॉ	-3037
▁अस्त	-3038
▁परिवर्त	-3039
▁बढ़ावा	-3040
भाषा	-3041
इड	-3042
▁बाव	-3043
▁प्	-3044
▁चलते	-3045
▁सरल	-3046
नु	-3047
▁17	-3048
▁संस्कृत	-3049
बाहरी	-3050
यण	-3051
▁बीमा	-3052
▁मालिक	-3053
साब	-3054
▁अफ्री	-3055
▁गवाह	-3056
ंबई	-3057
्वाह	-3058
▁पंजा	-3059
्यूशन	-3060
▁पाक	-3061
▁गंभीर	-3062
▁पड़ता	-3063
▁ग्राह	-3064
फार	-3065
▁फे	-3066
ोने	-3067
▁देखें	-3068
▁असा	-3069
रिया	-3070
फ़ार	-3071
▁ड्र	-3072
▁सांस्कृतिक	-3073
जीव	-3074
कृष्ट	-3075
▁इनके	-3076
▁कानू	-3077
▁रुपये	-3078
शाला	-3079
▁तर्क	-3080
▁रहें	-3081
▁उपयुक्त	-3082
▁लेता	-3083
सभा	-3084
▁अधिस	-3085
▁बौद्ध	-3086
▁वैश्विक	-3087
▁आपस	-3088
अल्लाह	-3089
ितीय	-3090
▁नसीहत	-3091
▁तकनीकी	-3092
▁30	-3093
▁भूल	-3094
ंचे	-3095
▁वस्तुओं	-3096
प्ताह	-3097
क्षेत्र	-3098
दूर	-3099
▁पाए	-3100
दना	-3101
▁पश्चात्	-3102
▁बनाकर	-3103
मारी	-3104
▁दोष	-3105
▁लोड	-3106
▁कार्र	-3107
▁H	-3108
▁गाय	-3109
▁सत्र	-3110
▁रोजगार	-3111
▁सश	-3112
वृत्त	-3113
▁घरों	-3114
▁पात्र	-3115
▁मिलने	-3116
▁अंतरराष्ट्रीय	-3117
▁खुश	-3118
ढ़ी	-3119
▁प्राण	-3120
▁प्रतीक	-3121
ख़्श	-3122
▁मस	-3123
▁खूब	-3124
▁महिलाओं	-3125
▁क्षेत्रीय	-3126
▁देखो	-3127
▁बनाई	-3128
नियों	-3129
▁जिनका	-3130
▁प्रयासों	-3131
भारत	-3132
सूस	-3133
▁हृदय	-3134
ादी	-3135
एँगे	-3136
क्ष्म	-3137
▁प्रसार	-3138
▁बुरी	-3139
▁नियुक्त	-3140
▁साझी	-3141
▁पत्थर	-3142
▁जादू	-3143
मर	-3144
▁विनिर्दिष्ट	-3145
▁टुक	-3146
▁नाटक	-3147
▁प्रभार	-3148
▁मज़	-3149
▁E	-3150
ुमार	-3151
▁खाद्य	-3152
▁शास्त	-3153
▁व्याख्या	-3154
खर	-3155
िकाओं	-3156
▁भय	-3157
▁अनुवाद	-3158
▁अधिकतर	-3159
▁कठोर	-3160
▁दिखाया	-3161
▁भरो	-3162
▁स्वरूप	-3163
ूंगा	-3164
कामना	-3165
▁संदे	-3166
▁अधिसू	-3167
प्रिय	-3168
▁दिये	-3169
ूँगा	-3170
▁उत्तम	-3171
▁पद्धति	-3172
▁शास	-3173
▁बिजली	-3174
▁विस्तृत	-3175
▁अधिकतम	-3176
▁प्लग	-3177
▁समाचार	-3178
▁एच	-3179
धानी	-3180
▁अनुसू	-3181
चित्र	-3182
▁सिस्टम	-3183
बूल	-3184
▁खोलें	-3185
▁व्याव	-3186
▁संस्करण	-3187
▁ज़ु	-3188
▁इजरा	-3189
▁कहानी	-3190
▁गुजरा	-3191
▁स्वामी	-3192
▁नियत	-3193
नर	-3194
''	-3195
▁सरक	-3196
▁इतनी	-3197
▁वाक़ि	-3198
▁समक्ष	-3199
▁बख्श	-3200
कद	-3201
▁अंध	-3202
▁दीर्	-3203
▁बावजूद	-3204
▁शक्त	-3205
व्र	-3206
▁शिव	-3207
▁मार्गदर्शन	-3208
▁ग्राम	-3209
▁पार्टी	-3210
▁प्रयुक्त	-3211
▁अरब	-3212
▁शेयर	-3213
▁प्रेर	-3214
▁शुभकामना	-3215
▁इंज	-3216
वें	-3217
▁सीख	-3218
▁वाता	-3219
▁क़यामत	-3220
▁आतंकवाद	-3221
्रिया	-3222
▁माह	-3223
▁कटौती	-3224
▁हालांकि	-3225
बूद	-3226
िक्री	-3227
▁बुनिया	-3228
मल	-3229
▁(3	-3230
द्धा	-3231
▁मूल्या	-3232
▁पश्चिमी	-3233
▁करनेवाला	-3234
▁त्व	-3235
ंटे	-3236
लिंग	-3237
▁विनि	-3238
▁फैस	-3239
▁अनुकूल	-3240
▁निरंतर	-3241
▁पाय	-3242
▁चिह्न	-3243
▁सज	-3244
ुत्व	-3245
▁परस्पर	-3246
▁फाय	-3247
तृत्व	-3248
वहन	-3249
▁मोड	-3250
▁छिपा	-3251
▁विमान	-3252
ॉन	-3253
भाष	-3254
▁w	-3255
)।	-3256
न्ना	-3257
▁मेल	-3258
▁स्पष्टीकरण	-3259
र्र	-3260
▁मास	-3261
त्न	-3262
▁दर्शन	-3263
▁रोज़ी	-3264
▁सामना	-3265
▁सम्प	-3266
▁खाली	-3267
▁सबको	-3268
त्‍	-3269
▁डाटा	-3270
दों	-3271
सों	-3272
▁विध	-3273
▁परिस्थित	-3274
▁अवै	-3275
▁एफ	-3276
▁दीवार	-3277
खिल	-3278
▁प्रच	-3279
▁वार्षिक	-3280
▁संचार	-3281
▁the	-3282
▁वायदा	-3283
अपनी	-3284
▁गहरा	-3285
▁मिशन	-3286
▁हार	-3287
▁गतिविधियों	-3288
▁कल्या	-3289
▁मिलकर	-3290
▁रेखा	-3291
▁प्रसिद्ध	-3292
▁विल	-3293
▁वातावरण	-3294
▁पूर्ववर्ष	-3295
▁सकेगा	-3296
▁हाथों	-3297
बादत	-3298
▁आसान	-3299
्ति	-3300
▁यंत्र	-3301
▁मुसलमानों	-3302
▁संलग्न	-3303
▁ऑन	-3304
▁सचि	-3305
▁अके	-3306
जिए	-3307
▁जानवर	-3308
20	-3309
वासियों	-3310
▁खड़ा	-3311
पास	-3312
▁राजन	-3313
▁अना	-3314
ोल्यूशन	-3315
▁तला	-3316
▁बॉ	-3317
▁चलता	-3318
▁द्वार	-3319
▁कार्ड	-3320
▁नियमों	-3321
स्वी	-3322
▁समर्	-3323
ट्र	-3324
नेवालों	-3325
▁e	-3326
▁हिन्दू	-3327
▁लिखने	-3328
यत	-3329
िज	-3330
ोकन	-3331
▁नियमित	-3332
जु	-3333
दिक	-3334
▁टाइ	-3335
▁इत्या	-3336
▁अपराध	-3337
ून्य	-3338
▁करनेवाले	-3339
▁कर्मचारियों	-3340
▁नामक	-3341
▁क्लिक	-3342
ेंशन	-3343
▁आरो	-3344
▁करी	-3345
किस्तान	-3346
▁संपूर्ण	-3347
▁सूक्ष्म	-3348
भु	-3349
▁मंज	-3350
▁खी	-3351
▁महसूस	-3352
पुट	-3353
▁अवि	-3354
▁स्वागत	-3355
▁फ़ैस	-3356
¤¤	-3357
ंकर	-3358
किल	-3359
▁वेतन	-3360
▁अभिव्य	-3361
वाली	-3362
ँव	-3363
▁भला	-3364
▁मतलब	-3365
▁हानि	-3366
▁ग्रहण	-3367
▁मल	-3368
लोड	-3369
▁अनुमान	-3370
▁स्त्री	-3371
ंखला	-3372
▁परीक्षण	-3373
टिल	-3374
▁सुझा	-3375
▁रौ	-3376
▁अंड	-3377
▁शिकायत	-3378
ंका	-3379
▁आंत	-3380
▁बंध	-3381
▁तमा	-3382
▁स्‍	-3383
▁माँग	-3384
▁सारा	-3385
▁हाँ	-3386
▁दीन	-3387
▁विश्ले	-3388
▁पैर	-3389
ंचाई	-3390
▁चैन	-3391
▁सदन	-3392
▁उपचार	-3393
▁अफ्रीका	-3394
बरी	-3395
▁कथ	-3396
▁वर	-3397
▁अस्प	-3398
▁हरगिज़	-3399
▁दावा	-3400
▁झुठलाया	-3401
▁अद्य	-3402
▁पंच	-3403
▁g	-3404
▁कार्रवाई	-3405
▁अवैध	-3406
▁सर्वा	-3407
▁x	-3408
▁–	-3409
▁24	-3410
▁प्रेष	-3411
▁देकर	-3412
▁बनाएँ	-3413
▁हिसाब	-3414
ाक	-3415
▁स्वच्छ	-3416
हि	-3417
पों	-3418
▁बाहरी	-3419
▁पंक्ति	-3420
▁बजा	-3421
▁माता	-3422
ताव	-3423
▁अद	-3424
▁साम्रा	-3425
▁अक्सर	-3426
....	-3427
▁इन्हें	-3428
▁टन	-3429
▁आये	-3430
टेड	-3431
▁मूर्ति	-3432
▁शुभकामनाएं	-3433
el	-3434
▁in	-3435
▁भरोसा	-3436
र्त	-3437
▁इबादत	-3438
▁जाएं	-3439
ष्क	-3440
▁वाह	-3441
▁भौतिक	-3442
▁सूर्य	-3443
▁सहेजें	-3444
ँति	-3445
▁प्राप्ति	-3446
▁प्रावधान	-3447
▁परा	-3448
▁तौबा	-3449
▁कल्याण	-3450
▁मात्र	-3451
▁जीवित	-3452
▁कारबार	-3453
▁चम	-3454
▁उपय	-3455
▁पीठ	-3456
▁जिनकी	-3457
▁O	-3458
▁दंड	-3459
▁समस्याओं	-3460
▁पेज	-3461
▁पाठ्य	-3462
▁प्रसन्नता	-3463
▁h	-3464
▁खाने	-3465
रेट	-3466
▁जनवरी	-3467
▁अंतर्राष्ट्रीय	-3468
तिहासिक	-3469
▁आयुक्त	-3470
▁कल्पना	-3471
▁खाना	-3472
▁शख़्श	-3473
▁संकल्प	-3474
▁आकर्ष	-3475
▁सुंदर	-3476
▁पत्त	-3477
▁उद	-3478
ंघ	-3479
▁ब्रा	-3480
▁बढ़कर	-3481
▁फॉ	-3482
▁अनुमो	-3483
▁खेती	-3484
▁भेजे	-3485
▁फा	-3486
▁हिस्से	-3487
▁व्यवसाय	-3488
▁मिलती	-3489
नांक	-3490
दिन	-3491
▁50	-3492
▁क्रा	-3493
▁कितने	-3494
पान	-3495
शब्द	-3496
▁मौसम	-3497
वट	-3498
▁कथा	-3499
▁उत्स	-3500
धीन	-3501
लाल	-3502
▁मानसिक	-3503
▁ढूं	-3504
▁खुशी	-3505
▁माबूद	-3506
▁भलाई	-3507
▁लगाने	-3508
▁पुराने	-3509
▁प्रजा	-3510
न्‍	-3511
▁वितरण	-3512
▁परियोजनाओं	-3513
▁बू	-3514
बारा	-3515
▁संबो	-3516
▁कार्यक्रमों	-3517
्वे	-3518
▁ज़रुर	-3519
▁आयोजन	-3520
▁क्षति	-3521
ियार	-3522
दु	-3523
▁शुरुआ	-3524
▁छुट	-3525
▁प्रार्थ	-3526
क्ट्र	-3527
▁तिथि	-3528
ायक	-3529
▁दूध	-3530
ce	-3531
▁नेतृत्व	-3532
▁दस्तावेज	-3533
▁धो	-3534
ृंखला	-3535
पै	-3536
रार	-3537
चीत	-3538
▁चलो	-3539
▁जून	-3540
▁बदलें	-3541
▁जायेगा	-3542
▁गणराज्य	-3543
▁पंचा	-3544
▁जानी	-3545
क्षेप	-3546
ूर्ति	-3547
▁चै	-3548
▁मनो	-3549
▁एवोल्यूशन	-3550
▁"%	-3551
pres	-3552
▁दोस्त	-3553
▁कदा	-3554
▁विवाद	-3555
▁धीरे	-3556
▁ब्रह	-3557
▁आइ	-3558
▁द्र	-3559
▁उसपर	-3560
▁न्यून	-3561
▁सप्ताह	-3562
जू	-3563
▁बोझ	-3564
लम	-3565
अलग	-3566
वान्वेष	-3567
▁अल्प	-3568
श्म	-3569
▁ज़ुल्म	-3570
वित्र	-3571
▁शत्र	-3572
▁मुद्द	-3573
▁हस्त	-3574
▁कितनी	-3575
▁हिंदू	-3576
▁कुफ्	-3577
ाले	-3578
क्षी	-3579
णु	-3580
▁इत्यादि	-3581
ूबर	-3582
ut	-3583
▁उड़	-3584
▁दयाल	-3585
▁प्ले	-3586
वर्तन	-3587
▁निरा	-3588
▁यूनि	-3589
त्मिक	-3590
लील	-3591
वक	-3592
▁शून्य	-3593
▁अभियान	-3594
दुनिया	-3595
▁अनुसरण	-3596
▁उपन्यास	-3597
्यार	-3598
▁क़सम	-3599
▁कराने	-3600
▁ख़र्च	-3601
▁कोड	-3602
यम	-3603
▁काफ़िर	-3604
▁निभा	-3605
छा	-3606
िक़	-3607
▁निर्देशिका	-3608
ियल	-3609
▁तट	-3610
▁जुड़े	-3611
▁मूल्यांकन	-3612
▁100	-3613
▁उत्कृष्ट	-3614
फ्र	-3615
▁खुले	-3616
▁तकली	-3617
▁मध	-3618
मंडल	-3619
▁मुला	-3620
▁३	-3621
▁आउट	-3622
ंता	-3623
▁आँख	-3624
▁प्रार्थना	-3625
शक्ति	-3626
▁पत्नी	-3627
▁लम्	-3628
▁पर्यटन	-3629
पादन	-3630
णिज्य	-3631
▁अंतरण	-3632
▁बजे	-3633
▁बनाते	-3634
▁सुख	-3635
▁पराम	-3636
▁होनी	-3637
▁प्रयोजन	-3638
▁संस्थाओं	-3639
न्दगी	-3640
▁शुद्ध	-3641
▁पट्टी	-3642
id	-3643
▁संगण	-3644
मीटर	-3645
गण	-3646
▁आनंद	-3647
▁बातचीत	-3648
▁कमांड	-3649
▁अस्तित्व	-3650
म्मद	-3651
्याग	-3652
िकाना	-3653
▁विशेषता	-3654
▁कर्मचारी	-3655
▁फूल	-3656
▁गुरु	-3657
▁डरते	-3658
क़यामत	-3659
▁आस्ति	-3660
▁ऐतिहासिक	-3661
ुप	-3662
▁हद	-3663
▁मिटाएँ	-3664
▁बेटे	-3665
▁नवान्वेष	-3666
श्मीर	-3667
▁तेरे	-3668
घाटन	-3669
▁अत्यधिक	-3670
▁प्रेरित	-3671
▁इजरायल	-3672
▁विद्यार्थियों	-3673
धीश	-3674
▁पंचांग	-3675
रक	-3676
▁फ़ॉ	-3677
▁विद्युत	-3678
ंटी	-3679
ूक	-3680
▁गंगा	-3681
मानी	-3682
▁लक्षण	-3683
▁निशानी	-3684
▁मान्यता	-3685
▁साब	-3686
▁आध्या	-3687
ent	-3688
ओगे	-3689
क्सी	-3690
▁मामला	-3691
▁इकाई	-3692
▁उदार	-3693
्ठा	-3694
▁गुप्त	-3695
▁बुराई	-3696
▁गैस	-3697
फ़र	-3698
▁तुर	-3699
▁प्रारूप	-3700
वीय	-3701
▁मानक	-3702
▁शुक्र	-3703
ोम	-3704
मान्य	-3705
▁शीर्षक	-3706
▁स्क्रीन	-3707
▁मुक़ाब	-3708
▁संबंधों	-3709
परिक	-3710
▁विवे	-3711
▁तेज	-3712
▁बिक्री	-3713
वां	-3714
▁इकट	-3715
▁आयतें	-3716
ुस	-3717
▁देखभाल	-3718
▁साधन	-3719
राई	-3720
▁कक्ष	-3721
▁सौंप	-3722
िश्तों	-3723
्ता	-3724
▁दुआ	-3725
▁चारों	-3726
▁बैंकों	-3727
्वर	-3728
▁बाह	-3729
▁लाया	-3730
▁फसल	-3731
▁काव्य	-3732
▁सुबह	-3733
▁दिला	-3734
▁वादा	-3735
लोग	-3736
▁स्तंभ	-3737
▁बुनियादी	-3738
▁प्रतिक्रिया	-3739
▁खिलाफ	-3740
▁वाणिज्य	-3741
▁ईमानदारों	-3742
▁किसान	-3743
▁इरा	-3744
▁प्रोट	-3745
र्ज	-3746
▁पाकिस्तान	-3747
िनी	-3748
▁मछ	-3749
▁प्रभुत्व	-3750
▁ख़ास	-3751
▁लोकप्रिय	-3752
▁नष्ट	-3753
ुमा	-3754
▁टिप	-3755
▁फिल्म	-3756
▁स्थिर	-3757
▁निदेशक	-3758
▁विरा	-3759
▁गृह	-3760
▁छूट	-3761
▁मंच	-3762
omment	-3763
करी	-3764
▁कहता	-3765
▁मानो	-3766
▁विशेषज्ञ	-3767
▁हराम	-3768
ॉकि	-3769
िक्स	-3770
▁फ्ल	-3771
▁करार	-3772
▁ठिकाना	-3773
जोर	-3774
▁प्रचार	-3775
▁आठ	-3776
मार्	-3777
▁गरीब	-3778
लेज	-3779
▁चेह	-3780
▁कुशल	-3781
▁स्थल	-3782
संख्या	-3783
मात्र	-3784
▁दिनांक	-3785
▁लोकतंत्र	-3786
▁लॉग	-3787
▁समी	-3788
▁किरा	-3789
▁ग़रज़	-3790
▁पुत्र	-3791
▁2.	-3792
▁कौशल	-3793
▁भाषण	-3794
▁स्थानों	-3795
▁परहे	-3796
▁फ़ैसला	-3797
ed	-3798
आन	-3799
▁विषयों	-3800
▁गोप	-3801
▁घरे	-3802
क्षिक	-3803
▁समस्त	-3804
ानु	-3805
▁माइ	-3806
▁ख्याल	-3807
खिम	-3808
▁अक्ष	-3809
uk	-3810
▁सवाल	-3811
▁रास्ता	-3812
▁लगातार	-3813
▁सामर्थ	-3814
▁परहेज़	-3815
▁193	-3816
▁पहाड़	-3817
▁आध्यात्मिक	-3818
▁आख	-3819
▁इतने	-3820
▁बरसा	-3821
▁उपयोक्ता	-3822
क्रिय	-3823
▁बनने	-3824
▁अर्थात्	-3825
▁सीधा	-3826
▁सेवाएं	-3827
▁अमेरिक	-3828
ec	-3829
▁कृत	-3830
तुम्ह	-3831
▁न्यूनतम	-3832
ैसे	-3833
कालिक	-3834
क्यों	-3835
▁नाट	-3836
▁पढ़ने	-3837
▁सभ	-3838
▁लेन	-3839
▁अद्यतन	-3840
▁ग्रंथ	-3841
▁21	-3842
▁अदा	-3843
▁रद्द	-3844
▁मिश्र	-3845
▁अभिप्रे	-3846
▁प्रोत्साहन	-3847
जात	-3848
भेद	-3849
वर्ड	-3850
▁लु	-3851
4)	-3852
▁संगठ	-3853
▁असमर्थ	-3854
▁एका	-3855
▁२००	-3856
▁परामर्श	-3857
र्वा	-3858
▁सुल	-3859
▁उम्र	-3860
▁इंजीन	-3861
▁थोड़ा	-3862
▁दूरी	-3863
▁पवित्र	-3864
▁पूजा	-3865
▁आग्रह	-3866
▁स्त्रियों	-3867
▁नहर	-3868
विल	-3869
▁साइ	-3870
▁प्रायः	-3871
माने	-3872
▁गुमराही	-3873
▁नजर	-3874
▁विरो	-3875
▁विजय	-3876
▁जहा	-3877
शास्त	-3878
▁मेहरबान	-3879
▁संसाधनों	-3880
▁पारित	-3881
रणा	-3882
▁कठिना	-3883
व्या	-3884
▁एकत्र	-3885
▁गवाही	-3886
▁विनियम	-3887
▁मंड	-3888
▁आंतरिक	-3889
कड़ी	-3890
डि	-3891
▁मज़ा	-3892
ालत	-3893
▁नेहर	-3894
स्तियों	-3895
▁अमरी	-3896
चलित	-3897
▁नागरिकों	-3898
▁तभी	-3899
▁मिन	-3900
▁अन्तर्	-3901
▁बेच	-3902
▁अज	-3903
▁उतार	-3904
▁घरेलू	-3905
▁प्रदू	-3906
ूसु	-3907
▁विज्ञ	-3908
▁महत्त्वपूर्ण	-3909
ालिब	-3910
▁इले	-3911
▁हथ	-3912
▁शाह	-3913
▁भागों	-3914
▁तीव्र	-3915
▁ध्वनि	-3916
▁वृक्ष	-3917
▁तरीका	-3918
कें	-3919
▁मीडिया	-3920
▁इंग	-3921
▁मुंबई	-3922
▁समन्व	-3923
▁गीत	-3924
▁विधे	-3925
▁देखकर	-3926
▁आज़	-3927
शे	-3928
▁बीज	-3929
▁बाँ	-3930
▁डाउन	-3931
▁शुरुआत	-3932
कीम	-3933
▁माप	-3934
▁निपट	-3935
▁रुपए	-3936
लाद	-3937
▁देवी	-3938
▁जाएंगे	-3939
▁गल	-3940
िक्र	-3941
▁आदम	-3942
यू	-3943
▁जोखिम	-3944
▁हालॉकि	-3945
णों	-3946
क़ी	-3947
▁सर्वे	-3948
▁भागीदारी	-3949
देन	-3950
लाभ	-3951
▁युक्त	-3952
▁आपूर्ति	-3953
िकल	-3954
▁मोमि	-3955
▁उद्घाटन	-3956
▁अभिप्रेत	-3957
▁दयावान	-3958
भाँति	-3959
▁पूछा	-3960
▁संवर्	-3961
▁ऑनलाइन	-3962
▁रास्ते	-3963
▁परिस्थितियों	-3964
▁जल्द	-3965
नल	-3966
▁ख़ुद	-3967
तल	-3968
▁भारती	-3969
:%	-3970
▁कोल	-3971
▁संचालन	-3972
ज़त	-3973
▁ढूंढ	-3974
▁नृत्य	-3975
▁भाषाओं	-3976
!"	-3977
▁u	-3978
▁तमाम	-3979
▁सर्वोच्च	-3980
▁अका	-3981
▁आसानी	-3982
▁सहकारी	-3983
दीय	-3984
▁तुझे	-3985
▁बदलाव	-3986
▁गुजरात	-3987
बन्ध	-3988
▁ज्ञापन	-3989
▁दृढ़	-3990
▁बाबत	-3991
विज्ञान	-3992
▁दूसरों	-3993
शनल	-3994
सायन	-3995
▁लंबा	-3996
▁सिवाय	-3997
▁साम्राज्य	-3998
▁...	-3999
▁नज़र	-4000
▁लड़के	-4001
▁करीब	-4002
▁राज्यपाल	-4003
इश	-4004
डु	-4005
▁गठन	-4006
▁पुस्तिका	-4007
ac	-4008
▁स्वतः	-4009
▁ख़ूब	-4010
▁सामर्थ्य	-4011
▁26	-4012
▁मई	-4013
▁दयालुता	-4014
▁शिश	-4015
▁बोले	-4016
▁अगस्त	-4017
▁स्मृति	-4018
html	-4019
्रांस	-4020
▁पॉ	-4021
▁कानूनी	-4022
▁प्रि	-4023
ड़ने	-4024
वियों	-4025
▁लोगो	-4026
▁काफिर	-4027
▁उपयोगी	-4028
ail	-4029
भाग्य	-4030
▁दीर्घ	-4031
▁प्रका	-4032
महिम	-4033
▁लड़ाई	-4034
▁सदा	-4035
▁देखता	-4036
▁मीटर	-4037
▁न्यायाधीश	-4038
▁घोषित	-4039
▁अधिकारों	-4040
▁निर्वाचन	-4041
▁तमिल	-4042
िस्ट	-4043
क्षीय	-4044
▁फैसला	-4045
म्स	-4046
▁रजि	-4047
▁लाइ	-4048
▁दस्तावेज़	-4049
▁पढ़ा	-4050
▁किनारे	-4051
▁मैदान	-4052
▁तथ्य	-4053
शाह	-4054
ॉक	-4055
द्री	-4056
कर्ताओं	-4057
▁संबोधित	-4058
▁जरूर	-4059
नन	-4060
ौल	-4061
▁मां	-4062
▁द्वीप	-4063
▁औष	-4064
▁कॉन्	-4065
▁वाद्य	-4066
50	-4067
iv	-4068
न्दी	-4069
▁काग	-4070
▁पशु	-4071
▁आश्च	-4072
▁चेतना	-4073
▁प्राथमिकता	-4074
ीनी	-4075
▁कलक	-4076
▁जितना	-4077
▁चलने	-4078
▁रीति	-4079
▁ग़ालिब	-4080
▁नक़	-4081
▁फोन	-4082
▁अज्ञात	-4083
▁वैध	-4084
धित्व	-4085
▁छह	-4086
वंश	-4087
शेष	-4088
▁ज़ाह	-4089
▁विन्यास	-4090
▁सूर	-4091
▁मुना	-4092
फारिश	-4093
भाषित	-4094
▁नु	-4095
संगत	-4096
▁समृद्ध	-4097
▁उत्पादों	-4098
▁लिखी	-4099
▁करेगी	-4100
▁हिंदी	-4101
घात	-4102
िव	-4103
फ़ा	-4104
▁गुज़र	-4105
दत्त	-4106
▁कर्त	-4107
मिन	-4108
▁संवाद	-4109
ंदी	-4110
ऊँ	-4111
▁महामहिम	-4112
दित	-4113
▁जटिल	-4114
▁आक्रमण	-4115
गोल	-4116
यदि	-4117
परीत	-4118
▁ख्वाह	-4119
▁एकल	-4120
षक	-4121
▁अन्दर	-4122
▁उठाने	-4123
ैर्य	-4124
▁यून	-4125
▁बीमारी	-4126
-201	-4127
▁उपबंधों	-4128
▁तस	-4129
▁अनुरूप	-4130
▁विश्लेषण	-4131
▁क़ि	-4132
▁बजाय	-4133
▁निरी	-4134
▁संकट	-4135
▁जाओगे	-4136
▁ताप	-4137
▁होंगी	-4138
बाइल	-4139
▁औरतों	-4140
▁नेहरू	-4141
▁लाइन	-4142
▁नैतिक	-4143
▁अनुरोध	-4144
▁परिणामस्वरूप	-4145
▁31	-4146
▁सरदार	-4147
र्रर	-4148
▁खुला	-4149
▁कृष्ण	-4150
▁विपरीत	-4151
▁सिफारिश	-4152
▁तार	-4153
▁मौत	-4154
▁उतर	-4155
▁जंग	-4156
▁बीमार	-4157
▁बुद्ध	-4158
▁अध्याय	-4159
▁झा	-4160
▁क़ा	-4161
लोगों	-4162
▁साबित	-4163
कारात्मक	-4164
वली	-4165
▁हिम	-4166
कालय	-4167
वाना	-4168
▁आनन्द	-4169
▁प्रतिनिधित्व	-4170
आप	-4171
▁लेंगे	-4172
▁आश्चर्य	-4173
▁वचन	-4174
▁मैने	-4175
▁बन्दगी	-4176
▁मुक़ाबले	-4177
रस	-4178
मेन	-4179
▁त्याग	-4180
▁यक़ीनी	-4181
▁विद्यमान	-4182
▁चीन	-4183
ंजन	-4184
▁पोर्ट	-4185
▁वर्षा	-4186
▁सॉफ्ट	-4187
▁चक्र	-4188
धक	-4189
▁क़ु	-4190
▁एकता	-4191
▁समझौता	-4192
▁प्रकाशन	-4193
▁सरकारों	-4194
▁सर्वाधिक	-4195
muk	-4196
▁दवा	-4197
▁चीज़ों	-4198
▁कूटशब्द	-4199
्राफ	-4200
▁पलट	-4201
▁नूह	-4202
▁दरवा	-4203
▁आरम्भ	-4204
▁पृथ्वी	-4205
▁प्रतीत	-4206
▁एंड	-4207
▁पंजाब	-4208
▁प्रशंसा	-4209
फ़्र	-4210
▁जनसंख्या	-4211
शासन	-4212
▁लौटा	-4213
▁कितना	-4214
▁प्रतिभा	-4215
▁फ़िर	-4216
▁जिनको	-4217
त्तम	-4218
▁शारी	-4219
लेट	-4220
दरत	-4221
▁नेक	-4222
बीर	-4223
pran	-4224
ing	-4225
▁दर्ज	-4226
▁भेद	-4227
▁अक्षम	-4228
▁सर्वेक्षण	-4229
▁हल्	-4230
jee	-4231
▁सिखा	-4232
▁आवाज़	-4233
▁प्रिय	-4234
abmuk	-4235
▁जमीन	-4236
▁जाकर	-4237
herjee	-4238
pranabmuk	-4239
pranabmukherjee	-4240
▁समाप्ति	-4241
▁करवा	-4242
▁खुली	-4243
▁कोवि	-4244
▁वहीं	-4245
▁डाले	-4246
▁पहुँचे	-4247
गढ़	-4248
▁परम	-4249
▁उपक्रम	-4250
▁पूर्वा	-4251
▁ज़िम्मे	-4252
prh	-4253
वायु	-4254
▁उठाए	-4255
▁ब्ल	-4256
▁अस्थ	-4257
▁आज्ञा	-4258
▁28	-4259
▁आओ	-4260
▁वैसे	-4261
▁धैर्य	-4262
जिस	-4263
▁दशक	-4264
▁अस्था	-4265
▁हैंः	-4266
▁राजनैतिक	-4267
▁इन्कार	-4268
▁पूर्वी	-4269
▁संगठनों	-4270
▁उधार	-4271
▁पसन्द	-4272
▁मुझसे	-4273
▁प्राधिकारी	-4274
▁नबी	-4275
▁पाई	-4276
▁आवास	-4277
▁सच्चा	-4278
▁सशक्त	-4279
▁l	-4280
पथ	-4281
▁दाह	-4282
लीय	-4283
▁(%	-4284
▁जय	-4285
▁टा	-4286
▁पंजीकरण	-4287
▁22	-4288
ंठ	-4289
▁प्रेरणा	-4290
अर	-4291
ज़ल	-4292
▁अर्थात	-4293
▁उद्योगों	-4294
▁काफ़ी	-4295
ूदी	-4296
▁उत्सा	-4297
▁निकाय	-4298
▁शिकार	-4299
▁23	-4300
▁ऑफ़	-4301
▁पाते	-4302
▁साफ़	-4303
▁प्रतीक्षा	-4304
▁कार्यान्वयन	-4305
यो	-4306
कभी	-4307
▁अत	-4308
▁उपभोक्ता	-4309
वित	-4310
ष्‍	-4311
प्रति	-4312
▁शहरी	-4313
▁शारीरिक	-4314
ष्टा	-4315
▁अहम	-4316
▁लिखित	-4317
▁जागर	-4318
प्ति	-4319
त्कार	-4320
▁अधिसूचना	-4321
▁पड़ी	-4322
▁सृजन	-4323
▁औसत	-4324
▁किलो	-4325
▁चुने	-4326
▁प्ल	-4327
▁मुश्	-4328
ri	-4329
▁निगर	-4330
▁निहित	-4331
▁मुद्र	-4332
ंडी	-4333
धों	-4334
▁बाग	-4335
▁धु	-4336
▁मुद्दों	-4337
अत	-4338
अमत	-4339
▁किस्म	-4340
▁इलेक्ट्र	-4341
▁27	-4342
▁टीम	-4343
इल	-4344
▁गौर	-4345
▁सजा	-4346
▁उठाया	-4347
▁तल	-4348
▁औलाद	-4349
▁सन्तान	-4350
▁नमू	-4351
▁पाठ्यक्रम	-4352
ंगिक	-4353
▁डाय	-4354
▁उच्चतम	-4355
▁सुविधाओं	-4356
▁टेली	-4357
▁सुभाष	-4358
▁तूने	-4359
▁यूसु	-4360
▁अमेरिकी	-4361
▁शैक्षिक	-4362
रात	-4363
सायिक	-4364
▁परेश	-4365
▁जिनसे	-4366
श्रम	-4367
ुस्तान	-4368
▁चुनौती	-4369
थे	-4370
्लो	-4371
▁Name	-4372
जब	-4373
▁साथी	-4374
▁सहज	-4375
▁सिक्	-4376
पालिका	-4377
▁घटा	-4378
स्तिष्क	-4379
▁आंख	-4380
▁डाउनलोड	-4381
▁तकनीक	-4382
थी	-4383
▁of	-4384
▁हत्या	-4385
▁परिवहन	-4386
▁आबाद	-4387
▁मिनट	-4388
▁मस्	-4389
चारिक	-4390
▁प्रोत्साहित	-4391
ड़ते	-4392
▁सड़क	-4393
समय	-4394
▁घंटे	-4395
कीन	-4396
▁आश	-4397
▁जनजा	-4398
▁श्रम	-4399
▁श्रृंखला	-4400
▁फें	-4401
▁गणना	-4402
दास	-4403
▁नयी	-4404
▁सेटिंग	-4405
▁आकर	-4406
▁देर	-4407
▁सराह	-4408
▁पेंशन	-4409
▁ईमानदार	-4410
▁हमसे	-4411
▁आना	-4412
▁पति	-4413
▁अगला	-4414
क्ष्य	-4415
▁कहाँ	-4416
▁कार्यवाही	-4417
ेंज	-4418
▁छात्रों	-4419
क़्त	-4420
संस्	-4421
▁छाप	-4422
्यवाद	-4423
▁स्ना	-4424
▁जैव	-4425
▁सें	-4426
शीलता	-4427
▁पूज्य	-4428
▁बिहार	-4429
▁अन्यथा	-4430
▁निगरानी	-4431
5)	-4432
▁कब	-4433
कुछ	-4434
▁क़ुरान	-4435
दंड	-4436
तीत	-4437
▁समीक्षा	-4438
▁रेलवे	-4439
▁ज़िन्दगी	-4440
क़रीब	-4441
▁परिवर्तित	-4442
▁बहुते	-4443
केट	-4444
▁घड़ी	-4445
▁बदलने	-4446
ंदन	-4447
ंदु	-4448
र्ती	-4449
▁समर्पित	-4450
ैनिक	-4451
▁आलो	-4452
गारों	-4453
▁फिरऔन	-4454
▁कनेक्शन	-4455
▁संयंत्र	-4456
▁केरल	-4457
▁रहमत	-4458
▁जिले	-4459
▁कलकत्ता	-4460
टेन	-4461
ुक्ति	-4462
न्द्रनाथ	-4463
▁इंटरनेट	-4464
▁विरोधी	-4465
▁सै	-4466
▁विधेयक	-4467
टो	-4468
िड	-4469
▁मिलेगा	-4470
ंपरिक	-4471
▁लगते	-4472
▁ज़ाहिर	-4473
ेरत	-4474
▁कहान	-4475
▁नवीन	-4476
▁स्मार	-4477
न्ड	-4478
▁तस्वी	-4479
▁महाराष्ट्र	-4480
ME	-4481
▁धारण	-4482
▁इसको	-4483
▁शिखर	-4484
▁उत्तरा	-4485
ase	-4486
चानक	-4487
▁अकबर	-4488
▁चालू	-4489
▁लाते	-4490
▁सचिव	-4491
▁नुक	-4492
▁नक़ल	-4493
▁लिंक	-4494
▁एड	-4495
▁चो	-4496
▁सुदृ	-4497
▁अनुपात	-4498
▁आसपास	-4499
▁समग्र	-4500
▁सचे	-4501
▁होम	-4502
▁रौशन	-4503
वधि	-4504
▁जेल	-4505
▁तथापि	-4506
▁मुक़र्रर	-4507
मार्ग	-4508
्यूट	-4509
▁तिर	-4510
▁देय	-4511
▁जरिए	-4512
▁प्रारंभिक	-4513
▁आर्	-4514
▁क़ाय	-4515
▁सूत्र	-4516
ंटर	-4517
मियान	-4518
▁पृष्ठभूमि	-4519
▁भेजें	-4520
▁मिसाल	-4521
▁उपा	-4522
▁शहरों	-4523
जल	-4524
▁गुफा	-4525
▁अचानक	-4526
▁सॉफ्टवेयर	-4527
।-	-4528
नाह	-4529
▁शरीक	-4530
▁श्रेष्ठ	-4531
:-	-4532
मेट	-4533
▁बग	-4534
▁”-	-4535
▁बटन	-4536
▁इनका	-4537
▁हवाई	-4538
▁टैग	-4539
वण	-4540
▁मूल्यों	-4541
ढ़ा	-4542
ाये	-4543
▁सुझाव	-4544
▁जलवायु	-4545
▁हार्	-4546
▁जुलाई	-4547
▁(3)	-4548
▁महात्मा	-4549
▁कदापि	-4550
ष्ठा	-4551
ड़ियों	-4552
▁निष्क्रिय	-4553
▁गोल	-4554
लैंड	-4555
▁गें	-4556
▁अभिय	-4557
▁विभाजन	-4558
▁कीट	-4559
▁खींच	-4560
▁W	-4561
▁प्रयत्न	-4562
चालित	-4563
प्राप्त	-4564
iii	-4565
ोबार	-4566
▁मोबाइल	-4567
पार	-4568
मतौर	-4569
▁मुश	-4570
▁शोध	-4571
▁अभिव्यक्ति	-4572
▁शौ	-4573
▁लंबे	-4574
▁रोकने	-4575
▁दरमियान	-4576
मोह	-4577
ोजी	-4578
▁प्राधिकरण	-4579
▁इसने	-4580
▁परमाण	-4581
भ्र	-4582
▁मं	-4583
ंत्रिक	-4584
vi	-4585
रत	-4586
▁Y	-4587
गामी	-4588
▁नाथ	-4589
▁सजदा	-4590
शुदा	-4591
▁द्वितीय	-4592
ेय	-4593
विधि	-4594
▁ग्राहक	-4595
▁नेताओं	-4596
▁विश्वविद्यालयों	-4597
ियामत	-4598
▁घाटे	-4599
ॉट	-4600
▁करोगे	-4601
▁चिंता	-4602
ur	-4603
कां	-4604
नाश	-4605
▁विशेषकर	-4606
ायी	-4607
▁निच	-4608
▁इकट्ठा	-4609
▁पारंपरिक	-4610
▁मर्द	-4611
▁मांस	-4612
▁योजनाओं	-4613
▁सिल	-4614
शास्त्र	-4615
▁रसूलों	-4616
एच	-4617
म्मत	-4618
▁पेड़	-4619
▁चलाने	-4620
▁ज्ञात	-4621
▁फ़ॉन्ट	-4622
▁अनुदान	-4623
▁युक्ति	-4624
▁समर्थित	-4625
क्रिप	-4626
▁प्रतिनिधि	-4627
▁शान	-4628
▁क्षमाशील	-4629
▁चुनौ	-4630
▁पुरानी	-4631
▁मुलाकात	-4632
▁मुश्किल	-4633
िकेट	-4634
ूर्ण	-4635
▁नुकसान	-4636
▁आकर्षित	-4637
▁ज़्यादा	-4638
▁सफ	-4639
▁साझा	-4640
न्या	-4641
▁उक्त	-4642
द्वीप	-4643
▁मौल	-4644
▁कामना	-4645
▁राजनीति	-4646
ow	-4647
▁कंपनियों	-4648
▁आराम	-4649
क्रो	-4650
▁आमतौर	-4651
▁अनक़रीब	-4652
लिया	-4653
प्रदाय	-4654
▁दाखिल	-4655
▁घटनाओं	-4656
▁जोड़ने	-4657
ंतरण	-4658
ठे	-4659
▁खान	-4660
hi	-4661
▁जर्म	-4662
▁कम्पनी	-4663
▁बिलकुल	-4664
▁नियंत्रित	-4665
बानी	-4666
▁देखे	-4667
▁संदेह	-4668
▁वाक़िफ	-4669
▁नस्	-4670
▁अपमान	-4671
▁प्रविष्ट	-4672
▁भंडारण	-4673
▁लै	-4674
▁जड़	-4675
▁लकड़ी	-4676
▁दिखाता	-4677
क़ा	-4678
▁औप	-4679
▁नंबर	-4680
▁सुदृढ़	-4681
▁कराया	-4682
▁चन्द्र	-4683
▁अवज्ञा	-4684
मण	-4685
▁80	-4686
▁इनकी	-4687
▁आमंत्र	-4688
साफ़	-4689
▁192	-4690
तावनी	-4691
▁समित	-4692
मै	-4693
▁ईमेल	-4694
▁समावेश	-4695
भाविक	-4696
▁कमजोर	-4697
▁फरवरी	-4698
▁सब्र	-4699
▁प्रशासनिक	-4700
>>	-4701
मती	-4702
▁नाग	-4703
▁बख्शने	-4704
▁तत्वदर्शी	-4705
www	-4706
ज्ज	-4707
▁आफ	-4708
कर्ष	-4709
▁उत्तरी	-4710
िटी	-4711
दायी	-4712
आख़िर	-4713
▁मुद्	-4714
▁नेअमत	-4715
▁संविदा	-4716
▁कुफ्फ़ार	-4717
▁मस्तिष्क	-4718
▁पट्ट	-4719
▁मध्यम	-4720
ार्थी	-4721
ोटो	-4722
ुरान	-4723
ूंकि	-4724
▁दुखद	-4725
▁मुकद	-4726
▁काला	-4727
▁संसदीय	-4728
▁ज़िन्दा	-4729
).	-4730
▁उपस्थिति	-4731
▁राजस्थान	-4732
▁सौर	-4733
▁आवाज	-4734
▁नहरें	-4735
▁शक्तियों	-4736
खो	-4737
न्दु	-4738
ग्रस्त	-4739
▁संतुल	-4740
▁चेतावनी	-4741
▁चुना	-4742
नीन	-4743
▁बढ़ती	-4744
▁2000	-4745
▁कुफ़्र	-4746
ॉल्ट	-4747
ेंसी	-4748
▁सागर	-4749
-0	-4750
▁संपादक	-4751
▁विनिमय	-4752
▁मारे	-4753
▁थोड़े	-4754
▁शत्रु	-4755
▁सलाम	-4756
▁समझने	-4757
▁1961	-4758
▁ढांचे	-4759
▁व्यावसायिक	-4760
fo	-4761
▁रण	-4762
▁ब्राह	-4763
▁कोशिका	-4764
ॉँ	-4765
▁खड़ी	-4766
▁अपेक्षित	-4767
▁आकृति	-4768
▁द्विप	-4769
▁सभ्यता	-4770
▁मुसी	-4771
नेवालो	-4772
▁देखना	-4773
बीह	-4774
अज़ाब	-4775
▁बस्ती	-4776
सोस	-4777
▁बहुम	-4778
▁साझे	-4779
▁फ़रमा	-4780
▁प्रभुत्वशाली	-4781
▁५	-4782
▁टिक	-4783
▁शुरु	-4784
ाइन	-4785
em	-4786
▁चूंकि	-4787
0}	-4788
स्फ	-4789
सारिक	-4790
▁सबके	-4791
▁खोलने	-4792
माल	-4793
ंचित	-4794
▁चली	-4795
पेक्ष	-4796
▁भेंट	-4797
थान	-4798
भावना	-4799
▁दादा	-4800
▁जानने	-4801
स्थापित	-4802
11	-4803
▁मृ	-4804
▁नेकी	-4805
घर	-4806
▁हटकर	-4807
▁कड़ी	-4808
▁नद	-4809
▁रिया	-4810
▁ईमानवालों	-4811
▁परमाणु	-4812
▁मस्जि	-4813
पह	-4814
▁दोहरा	-4815
▁स्वाम	-4816
▁अन्ततः	-4817
▁सांसारिक	-4818
वेद	-4819
▁लिखे	-4820
▁गिरफ्त	-4821
▁विरासत	-4822
ातु	-4823
▁कही	-4824
▁मिट	-4825
▁महल	-4826
▁चीनी	-4827
▁रहेगी	-4828
▁आह	-4829
▁निवास	-4830
▁संबद्ध	-4831
▁प्रतिबद्ध	-4832
▁रवी	-4833
▁दोबारा	-4834
▁४	-4835
▁अन्तर	-4836
▁अभाव	-4837
▁परिसर	-4838
तरित	-4839
▁गांवों	-4840
▁राजधानी	-4841
▁तोड़	-4842
▁युवाओं	-4843
ख्ते	-4844
घटना	-4845
▁वंश	-4846
▁गुमराह	-4847
▁मिलेगी	-4848
नीति	-4849
▁सतह	-4850
▁प्रान्त	-4851
स्पर्	-4852
▁स्वर	-4853
▁सुनने	-4854
फ़ि	-4855
▁पारि	-4856
▁बाह्य	-4857
▁मिलते	-4858
▁सिविल	-4859
▁चरित्र	-4860
▁सम्पूर्ण	-4861
▁सम्बन्धी	-4862
▁पैग़म्बरों	-4863
▁संग्र	-4864
तरी	-4865
नाटक	-4866
▁/	-4867
▁रोगी	-4868
▁परिचय	-4869
▁लंबी	-4870
▁बारगाह	-4871
जिट	-4872
साइ	-4873
▁40	-4874
▁अश	-4875
िप्त	-4876
▁न्यास	-4877
og	-4878
मति	-4879
▁तेरी	-4880
्याद	-4881
▁अभिक	-4882
▁हिंसा	-4883
▁एकमात्र	-4884
▁उल्ल	-4885
▁चेहरे	-4886
▁तस्वीर	-4887
व्यव	-4888
ॉर्ड	-4889
▁वीर	-4890
▁तयशुदा	-4891
▁प्रबंधक	-4892
रचना	-4893
▁इंच	-4894
▁निः	-4895
▁कैसा	-4896
धर्म	-4897
▁दाख़	-4898
▁नियुक्ति	-4899
▁अं	-4900
▁ठहर	-4901
▁नारा	-4902
▁विनष्ट	-4903
चरण	-4904
▁लेखन	-4905
जाम	-4906
बेस	-4907
▁याच	-4908
▁प्री	-4909
▁संगम	-4910
▁सकेंगे	-4911
▁अस्थायी	-4912
dia	-4913
ाइड	-4914
▁अदालत	-4915
▁अवतरित	-4916
▁मिलियन	-4917
▁()	-4918
सीसी	-4919
▁तलाश	-4920
▁अनुग्रह	-4921
▁थोड़ी	-4922
पत	-4923
▁कच	-4924
▁जला	-4925
▁पुष्टि	-4926
बरा	-4927
िकमत	-4928
▁बाकी	-4929
▁कुरान	-4930
▁भेजने	-4931
▁बिगा	-4932
▁हँ	-4933
▁खण्ड	-4934
▁विविधता	-4935
▁इल्म	-4936
▁लाइस	-4937
▁खि	-4938
▁सन्द	-4939
▁अस्वी	-4940
▁रिक्त	-4941
▁डरो	-4942
्लि	-4943
▁फैल	-4944
रूद्ध	-4945
▁मानवीय	-4946
ेन	-4947
त्स	-4948
▁समझौते	-4949
्यु	-4950
▁वर्गों	-4951
▁क़ियामत	-4952
▁फ़ाइलें	-4953
काब	-4954
▁गेंद	-4955
▁पुस्तकालय	-4956
▁आयी	-4957
मिटेड	-4958
▁आहार	-4959
पंथ	-4960
बाज	-4961
▁मेन	-4962
▁उन्न	-4963
ंडा	-4964
्मण	-4965
पक्ष	-4966
info	-4967
ंध्र	-4968
▁कॉल	-4969
▁पालने	-4970
▁दर्श	-4971
▁दाख़िल	-4972
▁गिन	-4973
▁इमार	-4974
▁तुरंत	-4975
▁शर्तों	-4976
▁ऑडियो	-4977
र्की	-4978
▁ड्राइ	-4979
▁प्रतियोग	-4980
▁सुविधाएं	-4981
▁चुप	-4982
▁प्रथा	-4983
▁मूर्	-4984
▁बनाता	-4985
▁जाल	-4986
▁भले	-4987
टका	-4988
त्ल	-4989
▁ब्राउ	-4990
▁दिखाने	-4991
ीकृत	-4992
lease	-4993
▁मुर्	-4994
▁सफेद	-4995
्पणी	-4996
▁टैब	-4997
▁निकाला	-4998
▁विभाजित	-4999
▁जिम्मेदारी	-5000
कृष्ण	-5001
▁सराहना	-5002
▁लिमिटेड	-5003
▁अनुसूचित	-5004
▁सर्वोत्तम	-5005
30	-5006
ोष	-5007
चार्य	-5008
▁दोनो	-5009
्यास	-5010
▁क़ायम	-5011
▁स्कीम	-5012
▁समुद्री	-5013
निंग	-5014
▁निरीक्षण	-5015
▁डिजा	-5016
▁हिकमत	-5017
▁गुनाहों	-5018
फ़ी	-5019
यिक	-5020
▁बनाये	-5021
▁क़िस्म	-5022
¤1⁄4	-5023
▁वरि	-5024
▁अवधार	-5025
ॉलर	-5026
▁ऑंख	-5027
▁कार्	-5028
▁तारा	-5029
▁शिक्षक	-5030
▁संपादित	-5031
साम	-5032
्रेट	-5033
निष्ठ	-5034
▁डिफ़	-5035
▁बच्चा	-5036
▁स्वीकृति	-5037
▁नवान्वेषण	-5038
जैसे	-5039
संबर	-5040
▁मॉडल	-5041
▁जुड़ा	-5042
▁संध्या	-5043
क्य	-5044
पणन	-5045
▁पत	-5046
▁पार्	-5047
▁फिली	-5048
नात्मक	-5049
▁सितंबर	-5050
▁क्ला	-5051
▁पाँच	-5052
ंछ	-5053
गन	-5054
ैत	-5055
गमन	-5056
▁3.	-5057
▁स्वस्थ	-5058
▁भरा	-5059
▁ख़ुश	-5060
▁कश्मीर	-5061
वलोकन	-5062
्यूब	-5063
▁अनुमोदन	-5064
\\	-5065
▁प्ला	-5066
▁उपखंड	-5067
▁वस्त्र	-5068
▁ठोस	-5069
वर्त	-5070
▁खराब	-5071
▁ताकत	-5072
▁हार्दिक	-5073
▁दबाव	-5074
▁संपादन	-5075
▁बुरे	-5076
नेवाली	-5077
▁क़ुरआन	-5078
▁आवश्यकताओं	-5079
▁वार्	-5080
▁जम्	-5081
श्वास	-5082
▁लाइसेंस	-5083
न्ध	-5084
▁मोदी	-5085
AN	-5086
▁समृद्धि	-5087
▁प्रतिष्ठित	-5088
▁खत्म	-5089
▁हड्ड	-5090
▁दैनिक	-5091
▁प्रदूषण	-5092
▁अपरि	-5093
▁भावी	-5094
▁विहित	-5095
▁नीतियों	-5096
वश	-5097
मगर	-5098
▁अभिलाभ	-5099
▁संग्रहालय	-5100
अल	-5101
हो	-5102
सेट	-5103
िने	-5104
ख्यात	-5105
▁राहत	-5106
मुसलमान	-5107
▁प्लगइन	-5108
▁पर्	-5109
▁चौड़ाई	-5110
▁प्रतिभूति	-5111
ज़िर	-5112
▁सुनते	-5113
▁हक	-5114
▁प्रवाह	-5115
▁प्रचलित	-5116
▁गौ	-5117
▁अली	-5118
▁समूहों	-5119
▁द्विपक्षीय	-5120
▁ऊपरी	-5121
ग्ध	-5122
▁यो	-5123
▁चिप	-5124
वादियों	-5125
▁अफ़	-5126
▁मृत	-5127
▁नाते	-5128
▁स्वचालित	-5129
ैरह	-5130
स्ट्र	-5131
▁सोचा	-5132
▁सुनता	-5133
हिता	-5134
▁जोड़ा	-5135
60	-5136
▁पैके	-5137
▁विक्र	-5138
▁भरे	-5139
▁2016	-5140
▁परिभाषित	-5141
▁बिंदु	-5142
▁उन्होने	-5143
याय	-5144
क़त	-5145
हाल	-5146
▁आदान	-5147
स्कट	-5148
▁उतना	-5149
दीक	-5150
▁अग्रणी	-5151
▁कू	-5152
▁द्वि	-5153
▁मछली	-5154
मंड	-5155
▁सप	-5156
▁सावधान	-5157
ist	-5158
▁मौजि	-5159
▁सरकशी	-5160
▁जहन्नम	-5161
▁स्वाभाविक	-5162
-19	-5163
ome	-5164
ायर	-5165
▁बारी	-5166
उंड	-5167
▁कब्	-5168
▁विपणन	-5169
धारी	-5170
ार्ज	-5171
▁दान	-5172
▁उन्नत	-5173
▁टूट	-5174
▁बोली	-5175
▁संक्रमण	-5176
स्को	-5177
▁उगा	-5178
▁हरि	-5179
▁डो	-5180
)...	-5181
▁भारतीयों	-5182
12	-5183
ूहिक	-5184
▁परे	-5185
▁चिह्नित	-5186
▁श्रद्धा	-5187
▁रेश	-5188
▁फ़िल	-5189
▁बहुतेरे	-5190
ag	-5191
▁छि	-5192
▁गर्म	-5193
▁रोज़	-5194
▁साइट	-5195
▁चैनल	-5196
▁समझे	-5197
▁बाधा	-5198
▁नेपाल	-5199
▁दिसंबर	-5200
▁लेती	-5201
▁कपड़े	-5202
▁ज़ालिमों	-5203
ट्	-5204
▁मक	-5205
सागर	-5206
▁रिज	-5207
▁जन्नत	-5208
▁लानेवालो	-5209
क्क	-5210
फोन	-5211
हाई	-5212
▁चतु	-5213
▁हुक	-5214
▁आजादी	-5215
दल	-5216
रीबी	-5217
स्तर	-5218
▁वकी	-5219
फो	-5220
लक	-5221
▁अँ	-5222
रेखा	-5223
▁ज़रा	-5224
▁मुंह	-5225
Comment	-5226
▁उत्साह	-5227
▁मंदिरों	-5228
▁डिफ़ॉल्ट	-5229
▁अर्ध	-5230
▁भेजी	-5231
▁उतारा	-5232
▁यूनिट	-5233
▁टिप्पणी	-5234
-2018	-5235
कार्य	-5236
▁कृतज्ञ	-5237
▁असर	-5238
▁कैं	-5239
▁लाओ	-5240
▁गिरा	-5241
▁ट्रे	-5242
▁अवसरों	-5243
▁साहित्यिक	-5244
▁2013	-5245
▁छाया	-5246
▁ऊंचाई	-5247
▁वर्गी	-5248
▁मुसीबत	-5249
▁कर्नाटक	-5250
▁छुपा	-5251
▁देखी	-5252
▁प्रविष्टि	-5253
पात	-5254
बाल	-5255
▁टॉ	-5256
▁सन	-5257
▁कर्तव्य	-5258
▁गू	-5259
▁स्ट्र	-5260
-8	-5261
जान	-5262
ेंद्र	-5263
▁कुमार	-5264
▁बन्दे	-5265
▁अस्पताल	-5266
राईल	-5267
▁मानना	-5268
▁समझता	-5269
▁y	-5270
▁६	-5271
माना	-5272
▁दुर	-5273
▁चाहा	-5274
▁लगाए	-5275
्यादती	-5276
▁पर्वत	-5277
us	-5278
▁दह	-5279
▁फ्र	-5280
उप	-5281
तिश	-5282
पिता	-5283
▁खाओ	-5284
क्रिप्ट	-5285
दरा	-5286
▁घटक	-5287
▁क़दम	-5288
▁फ़िल्म	-5289
मेरे	-5290
▁दुः	-5291
▁क्रो	-5292
▁सीधी	-5293
▁संवर्धन	-5294
▁महीनों	-5295
▁सामूहिक	-5296
▁ट्रै	-5297
▁विद्र	-5298
▁हितों	-5299
▁डेस्कट	-5300
▁सदी	-5301
शिष्ट	-5302
▁जिहाद	-5303
▁भक्ति	-5304
ड़ित	-5305
क्षिप्त	-5306
▁स्वर्ण	-5307
▁35	-5308
ष्णु	-5309
▁धन्यवाद	-5310
▁दुर्घटना	-5311
▁V	-5312
▁गार	-5313
▁चाहें	-5314
▁प्रतिस्पर्	-5315
य्य	-5316
▁बोस	-5317
▁मकान	-5318
ंची	-5319
तौर	-5320
▁रूस	-5321
▁अरबी	-5322
तियां	-5323
▁सचेत	-5324
▁बादशाह	-5325
ंटा	-5326
▁क़त्ल	-5327
्मा	-5328
▁उद्ध	-5329
▁गहरी	-5330
▁सत्यापन	-5331
मूल	-5332
दूरी	-5333
▁जवा	-5334
▁यूरोपीय	-5335
▁अन्तर्गत	-5336
▁दिव्य	-5337
▁भरी	-5338
प्रदान	-5339
▁to	-5340
▁वरिष्ठ	-5341
कोश	-5342
सीन	-5343
ार्ट	-5344
▁फर्म	-5345
▁अग्रिम	-5346
▁डिजिट	-5347
▁समानता	-5348
रेख	-5349
्यूल	-5350
▁कारणों	-5351
▁सीमाओं	-5352
uot	-5353
ॉनिक	-5354
ेश्वर	-5355
▁आएगा	-5356
▁आरोप	-5357
दर्शिता	-5358
▁पक्षों	-5359
▁जानवरों	-5360
▁देवता	-5361
▁पैमाने	-5362
ंघन	-5363
राव	-5364
मर्श	-5365
▁लूत	-5366
▁पीढ़ी	-5367
▁पासवर्ड	-5368
हमारे	-5369
▁सदस्यता	-5370
▁फु	-5371
शाही	-5372
▁बैक	-5373
▁मक्	-5374
▁दौड़	-5375
▁सीडी	-5376
▁त्वचा	-5377
▁बाध्य	-5378
▁करु	-5379
▁ऊँचा	-5380
▁ब्रि	-5381
▁अक्षर	-5382
▁पत्रिका	-5383
▁संरक्षक	-5384
िकता	-5385
▁उल्लेखनीय	-5386
▁सहमत	-5387
क्तूबर	-5388
▁चाहेंगे	-5389
संप	-5390
ण्य	-5391
▁मुकाब	-5392
▁शिक्षण	-5393
▁यूसुफ	-5394
▁तत्काल	-5395
▁साथियों	-5396
▁अनुज्ञात	-5397
िमा	-5398
▁60	-5399
▁नौकरी	-5400
▁डेस्कटॉप	-5401
▁चीजों	-5402
▁अपनाया	-5403
▁चिकित्स	-5404
न्थ	-5405
▁रवि	-5406
▁जम्मू	-5407
▁प्रतिबंध	-5408
▁दर्दना	-5409
▁विनिर्माण	-5410
▁ग़ौर	-5411
▁दर्द	-5412
▁हमको	-5413
▁जितनी	-5414
▁मिलाकर	-5415
ुरी	-5416
▁इसराईल	-5417
▁मोमिनीन	-5418
▁i	-5419
ेरे	-5420
▁पहलू	-5421
▁उभ	-5422
▁उड़ा	-5423
▁कच्च	-5424
धिकारी	-5425
▁पूर्वो	-5426
▁विद्या	-5427
▁अंतरिक्ष	-5428
▁बांग	-5429
संच	-5430
▁घु	-5431
▁चेक	-5432
▁पुष्	-5433
▁टू	-5434
ित्त	-5435
▁डिजाइन	-5436
▁प्रारम्भ	-5437
▁आंध्र	-5438
क्योंकि	-5439
▁>>	-5440
▁कोय	-5441
फू	-5442
▁तुम्हे	-5443
▁रेडियो	-5444
▁क्रिकेट	-5445
▁विरूद्ध	-5446
▁32	-5447
कू	-5448
▁कष्ट	-5449
▁खिस	-5450
▁मजदूर	-5451
▁याचिका	-5452
▁असाधारण	-5453
▁तकलीफ़	-5454
▁पूर्ति	-5455
▁यथास्थिति	-5456
डो	-5457
जाल	-5458
िरो	-5459
▁पूर्वावलोकन	-5460
▁चोट	-5461
▁नाप	-5462
▁डॉलर	-5463
▁बिगाड़	-5464
▁शोक	-5465
▁अहले	-5466
▁चंद्र	-5467
▁फ़िरऔन	-5468
अनु	-5469
▁29	-5470
श्री	-5471
▁नेशनल	-5472
AT	-5473
काता	-5474
▁एक्	-5475
▁बुल	-5476
म्परा	-5477
ंगों	-5478
▁हिमा	-5479
.2	-5480
▁अर्जित	-5481
▁यूँ	-5482
▁हला	-5483
▁दावे	-5484
▁तीसरे	-5485
▁सम्भव	-5486
▁उपयोगकर्ता	-5487
▁तंग	-5488
▁दर्दनाक	-5489
▁निष्कर्ष	-5490
▁पुस्तकों	-5491
and	-5492
▁वस	-5493
▁तत्वों	-5494
▁प्रतियोगिता	-5495
as	-5496
▁यौ	-5497
▁पौधों	-5498
▁कठिनाई	-5499
▁यथ	-5500
▁चाय	-5501
▁प्रेस	-5502
▁फ़रिश्ते	-5503
ंख्य	-5504
india	-5505
▁2006	-5506
▁अंतः	-5507
▁ब्य	-5508
▁गहन	-5509
▁बजट	-5510
▁घाटी	-5511
▁समाय	-5512
ैया	-5513
त्ते	-5514
▁बचाव	-5515
▁बांध	-5516
▁इंडियन	-5517
▁निशानियों	-5518
▁पाइ	-5519
▁पैरा	-5520
▁संहिता	-5521
▁पंजीकृत	-5522
ion	-5523
नान	-5524
▁रिस	-5525
▁हरे	-5526
▁काली	-5527
ब्ब	-5528
ानिक	-5529
्रोल	-5530
▁दास	-5531
▁राजस्व	-5532
▁अक्तूबर	-5533
▁क्रांति	-5534
SL	-5535
द्दी	-5536
▁साँ	-5537
▁बारह	-5538
▁दुश्म	-5539
▁प्रेषित	-5540
ुसार	-5541
▁पाद	-5542
पूर	-5543
किसी	-5544
▁उपकरणों	-5545
▁फि	-5546
▁ख़ौ	-5547
▁गरीबी	-5548
ation	-5549
ात्मक	-5550
रुप	-5551
▁छोड़ा	-5552
मुसलमानों	-5553
ad	-5554
सेस	-5555
▁मूलभूत	-5556
▁कॉन्फ़ि	-5557
▁त्रुटिः	-5558
▁कहे	-5559
▁कहला	-5560
▁कनेक्ट	-5561
कल्प	-5562
पश्च	-5563
▁खतरा	-5564
▁बाबू	-5565
▁सांस	-5566
▁केंद्रित	-5567
▁उपर	-5568
ड़िया	-5569
▁गठित	-5570
▁बल्ले	-5571
▁काउ	-5572
▁नज़	-5573
जनन	-5574
ंडित	-5575
सनीय	-5576
▁परस	-5577
▁धातु	-5578
▁कहेगा	-5579
▁पैकेज	-5580
▁वार्ता	-5581
.5	-5582
▁शक्तिशाली	-5583
▁आब	-5584
निवेश	-5585
▁ईसाई	-5586
▁अधिकरण	-5587
▁मैत्री	-5588
दायक	-5589
▁जायें	-5590
▁चू	-5591
ंकित	-5592
etail	-5593
प्रभु	-5594
▁बैठा	-5595
▁लाना	-5596
▁फायदा	-5597
oc	-5598
ढ़े	-5599
▁शेय	-5600
▁सरकश	-5601
▁बैंकिंग	-5602
्नों	-5603
▁अग्	-5604
.)	-5605
ate	-5606
िली	-5607
यंती	-5608
▁आलोचना	-5609
▁व्यक्तित्व	-5610
ज़ोर	-5611
अच्छा	-5612
▁प्रस्तु	-5613
14	-5614
काय	-5615
▁क्व	-5616
▁सहमति	-5617
▁उद्यान	-5618
शांत	-5619
▁</	-5620
▁औरत	-5621
स्ट्री	-5622
बेह	-5623
▁समन्वय	-5624
▁काफ़िरों	-5625
▁वाणिज्यिक	-5626
OR	-5627
टि	-5628
ादिर	-5629
▁2017	-5630
▁अब्द	-5631
▁देगें	-5632
ुत्	-5633
▁जम	-5634
वंबर	-5635
▁नार	-5636
▁मरा	-5637
▁अकाद	-5638
▁जवाहर	-5639
▁काफिरों	-5640
▁सद्	-5641
▁ढांचा	-5642
▁फ़िल्टर	-5643
शः	-5644
▁लगती	-5645
▁संवेदन	-5646
▁परिवारों	-5647
▁1,	-5648
▁भटक	-5649
तू	-5650
▁2007	-5651
▁माने	-5652
▁संदाय	-5653
AP	-5654
▁ग्री	-5655
▁कामों	-5656
▁प्रणाल	-5657
▁कोविन्द	-5658
▁बौद्धिक	-5659
वानी	-5660
▁उर्व	-5661
▁निर्मा	-5662
▁मुक्ति	-5663
▁v	-5664
▁शान्त	-5665
▁मनुष्यों	-5666
▁सल	-5667
▁धारणा	-5668
▁फार्म	-5669
▁टो	-5670
▁पाब	-5671
press	-5672
▁रूपांत	-5673
▁जिम्मेदार	-5674
▁नेत्र	-5675
▁तैय	-5676
▁मादा	-5677
▁जोड़े	-5678
िरी	-5679
▁शरण	-5680
स्पति	-5681
▁पड़ती	-5682
▁प्रोज	-5683
▁मोमिन	-5684
▁सैनिक	-5685
▁विद्यालय	-5686
धानिक	-5687
▁कागज	-5688
▁उल्लंघन	-5689
▁चुनौतियों	-5690
सो	-5691
▁सकाः	-5692
▁शिशु	-5693
▁जायेगी	-5694
▁मॉड	-5695
▁रहस्य	-5696
▁पड़ेगा	-5697
▁ब्रह्म	-5698
▁मुगल	-5699
▁निवासी	-5700
▁औपचारिक	-5701
▁गवर्	-5702
▁बनकर	-5703
▁श्रमिक	-5704
ंजलि	-5705
जीवन	-5706
▁रोका	-5707
▁विद्वान	-5708
ैम	-5709
▁बेटा	-5710
▁साहस	-5711
स्ट्रे	-5712
▁प्रभाग	-5713
▁सुसंगत	-5714
▁फ़रिश्तों	-5715
ुरा	-5716
▁कक्षा	-5717
▁चीज़े	-5718
▁परम्परा	-5719
▁1961-2018	-5720
▁संक्षिप्त	-5721
▁सेल	-5722
▁फेंक	-5723
▁लिंग	-5724
ध्यक्ष	-5725
▁कारोबार	-5726
ियाई	-5727
▁ध्वज	-5728
▁चाहती	-5729
सीय	-5730
िश्र	-5731
▁अकेले	-5732
▁नवंबर	-5733
▁लगाना	-5734
16	-5735
▁चिंत	-5736
▁टुकड़े	-5737
▁तमिलना	-5738
▁प्रवृत्ति	-5739
▁r	-5740
▁2014	-5741
▁वकील	-5742
▁प्रत्या	-5743
▁पहन	-5744
▁वंचित	-5745
▁दक्षिणी	-5746
क्षणिक	-5747
▁पैरवी	-5748
▁निष्पादन	-5749
▁इक	-5750
▁अम्	-5751
▁जयंती	-5752
▁निकले	-5753
▁बढ़ने	-5754
▁कॉन्फ़िगर	-5755
वारी	-5756
▁जिसपर	-5757
▁प्रसंस्	-5758
पेट	-5759
▁अंतराल	-5760
▁बाग़ों	-5761
▁बस्तियों	-5762
काने	-5763
▁बेल	-5764
पूर्ति	-5765
▁क़ुबूल	-5766
▁संभावित	-5767
नाक	-5768
▁बढा	-5769
▁स्वामित्व	-5770
▁गै	-5771
ident	-5772
कर्षण	-5773
▁2005	-5774
▁साव	-5775
स्तानी	-5776
▁चीजें	-5777
▁प्यार	-5778
गों	-5779
▁गर	-5780
▁परसतिश	-5781
▁इस्लामी	-5782
पल	-5783
वती	-5784
्वान	-5785
▁हिमालय	-5786
त्ती	-5787
▁कॉलेज	-5788
▁यहूदी	-5789
▁पदार्थों	-5790
▁छू	-5791
▁अगली	-5792
▁पिछली	-5793
▁विद्यार्थी	-5794
ूली	-5795
▁आल	-5796
▁खतर	-5797
▁अभिन	-5798
▁हाथी	-5799
स्थल	-5800
▁आबादी	-5801
▁समुचित	-5802
▁उपलब्धि	-5803
ल्‍	-5804
19	-5805
▁ज़ोर	-5806
▁लेगा	-5807
सूर	-5808
ब्रे	-5809
▁नोड	-5810
▁साध	-5811
▁तंत्रिका	-5812
▁‘‘	-5813
ofindia	-5814
▁पहुंचे	-5815
▁इजा	-5816
▁सब्	-5817
▁ताला	-5818
▁फोटो	-5819
▁संचालित	-5820
▁प्रवृत्त	-5821
▁गहराई	-5822
▁मस्जिद	-5823
president	-5824
डकर	-5825
▁for	-5826
ख्तेयार	-5827
्द	-5828
▁उभर	-5829
▁देशी	-5830
धीरे	-5831
र्ज़	-5832
▁पीने	-5833
release	-5834
▁प्रोटोक	-5835
▁सम्पर्क	-5836
▁खिल	-5837
▁पैसे	-5838
▁रिजर्व	-5839
ङ्	-5840
ग्रहण	-5841
▁जुड़ी	-5842
▁शिक्षकों	-5843
presidentofindia	-5844
ंभव	-5845
▁छुटकारा	-5846
▁पेशे	-5847
▁स्टेशन	-5848
▁रिकार्ड	-5849
▁गिरफ्तार	-5850
ch	-5851
ुम्ब	-5852
▁समाह	-5853
▁पच	-5854
▁अमल	-5855
▁घूम	-5856
▁सरपर	-5857
detail	-5858
क्ताओं	-5859
दराबाद	-5860
▁स्वीकृत	-5861
दिरा	-5862
▁आनु	-5863
▁कराना	-5864
▁सामान्यतः	-5865
▁सफलतापूर्वक	-5866
▁पोषण	-5867
▁मनोर	-5868
▁सवार	-5869
▁रवीन्द्रनाथ	-5870
न्य	-5871
▁मिथ	-5872
▁चन्द	-5873
▁आसमानों	-5874
▁ब्रिटेन	-5875
▁आमंत्रित	-5876
मों	-5877
▁हॉ	-5878
▁जीवा	-5879
▁उद्देश्यों	-5880
कीर्ण	-5881
ग़रज़	-5882
▁इनसे	-5883
▁कोलकाता	-5884
▁UR	-5885
डिंग	-5886
▁रुचि	-5887
▁रहमान	-5888
दस्त	-5889
▁गर्व	-5890
▁गोया	-5891
▁प्रसंग	-5892
",	-5893
लभ	-5894
ंसिल	-5895
▁टर्म	-5896
▁कथन	-5897
▁इसपर	-5898
▁पूछो	-5899
कांक्षा	-5900
▁विष्णु	-5901
▁योग्यता	-5902
ex	-5903
▁जनरल	-5904
▁अर्ज़	-5905
क्सा	-5906
िन्त	-5907
प्न	-5908
▁गौरव	-5909
▁ग्राफ	-5910
▁प्रकाशना	-5911
ंशिक	-5912
▁रानी	-5913
▁आज़मा	-5914
▁कर्ता	-5915
▁प्रास	-5916
▁सहन	-5917
▁दिलच	-5918
▁संस्थापित	-5919
ूष	-5920
▁छत	-5921
▁आपसे	-5922
क़ुरान	-5923
▁स्मरण	-5924
▁प्राधिकार	-5925
▁नै	-5926
▁जीन	-5927
▁स्थाना	-5928
प्ट	-5929
्मी	-5930
▁“%	-5931
ड़ना	-5932
▁त्रि	-5933
खन	-5934
शंकर	-5935
▁अन्तिम	-5936
▁डिजिटल	-5937
▁मशीनरी	-5938
▁निकलने	-5939
▁सिद्धांतों	-5940
am	-5941
शनी	-5942
ार्इ	-5943
▁क्षण	-5944
▁वैसा	-5945
▁माध्य	-5946
▁आरंभिक	-5947
▁पहुंचने	-5948
▁उत्तरदायी	-5949
IN	-5950
▁गर्भ	-5951
▁नान	-5952
▁इलाज	-5953
▁घुमा	-5954
▁किलोमीटर	-5955
▁दिमा	-5956
▁जानकर	-5957
राष्ट्र	-5958
▁बांग्ला	-5959
बै	-5960
▁इलेक्ट्रॉनिक	-5961
AR	-5962
▁पड	-5963
▁आचरण	-5964
पादित	-5965
▁ज़कात	-5966
▁ट्रैक	-5967
▁रसायन	-5968
▁पंख	-5969
▁पार्क	-5970
▁बचत	-5971
▁पहाड़ी	-5972
▁स्वभाव	-5973
▁संशोधित	-5974
▁प्रयोगशाला	-5975
/-	-5976
▁पोत	-5977
▁मानी	-5978
▁पंडित	-5979
शित	-5980
▁चट्ट	-5981
▁डराने	-5982
▁अनुपालन	-5983
▁जातियों	-5984
▁वाक़िफ़	-5985
तोष	-5986
▁इम	-5987
बूती	-5988
▁कमरे	-5989
ao	-5990
▁(4)	-5991
▁बाहम	-5992
▁अनुसूची	-5993
अब	-5994
तरे	-5995
▁नक	-5996
ज़ाम	-5997
▁पांड	-5998
▁वारिस	-5999
▁मित्रों	-6000
▁अलब	-6001
▁ईमानवाले	-6002
नें	-6003
▁परो	-6004
▁मासिक	-6005
गारी	-6006
▁आउटपुट	-6007
▁तह	-6008
▁खनि	-6009
▁तापमान	-6010
▁एयर	-6011
खु	-6012
▁दरिया	-6013
▁मददगार	-6014
ंजा	-6015
पट्टी	-6016
▁पौधे	-6017
▁संवे	-6018
▁सम्रा	-6019
▁पुरुषों	-6020
▁हैदराबाद	-6021
लै	-6022
याद	-6023
दृश्य	-6024
▁बढ़ते	-6025
▁भर्ती	-6026
डन	-6027
खाव	-6028
▁झुक	-6029
▁जहाज	-6030
▁निवार	-6031
▁वर्णित	-6032
▁अत्याचार	-6033
▁फ्लै	-6034
▁बुलाया	-6035
▁पिला	-6036
▁मातृ	-6037
▁इंजीनिय	-6038
▁जीत	-6039
ख़बरी	-6040
▁आश्व	-6041
▁अत्याचारी	-6042
ज़ि	-6043
समें	-6044
▁देगी	-6045
▁परिक	-6046
▁पोजी	-6047
▁बचाने	-6048
▁मानवता	-6049
ख़ेरत	-6050
▁लड़की	-6051
▁इसीलिए	-6052
▁एकीकृत	-6053
▁सरपरस्त	-6054
▁अख	-6055
▁सोने	-6056
▁न्यायिक	-6057
ब्लिक	-6058
्लैंड	-6059
▁गहरे	-6060
▁संतु	-6061
▁रूपों	-6062
▁लोकता	-6063
▁तमिलनाडु	-6064
▁१८	-6065
▁काश	-6066
▁वास	-6067
▁मंडल	-6068
▁इनपुट	-6069
▁पंचाय	-6070
▁वापसी	-6071
▁सकेगी	-6072
है	-6073
बूझ	-6074
पानी	-6075
▁बहा	-6076
▁फज़ल	-6077
बूर	-6078
▁नती	-6079
▁श्व	-6080
न्हीं	-6081
▁विनाश	-6082
▁समाहित	-6083
चिक	-6084
क्की	-6085
▁शिल्प	-6086
▁फ्रांस	-6087
▁महाराजा	-6088
लित	-6089
ोनें	-6090
▁उपे	-6091
▁चमक	-6092
बोर्ड	-6093
▁तुर्की	-6094
▁दूरस्थ	-6095
▁सिंचाई	-6096
▁हिंदुस्तान	-6097
हु	-6098
याल	-6099
राशि	-6100
्रोतों	-6101
▁क़रीब	-6102
▁कार्ब	-6103
▁लिखें	-6104
टाई	-6105
रीन	-6106
ोजक	-6107
▁काले	-6108
▁उच्चतर	-6109
▁सम्मानित	-6110
ub	-6111
ौरन	-6112
▁तैयारी	-6113
▁परिवेश	-6114
-#-#-#-#	-6115
ानत	-6116
ंतिक	-6117
▁2015	-6118
▁बहाद	-6119
▁मुख़	-6120
▁जापान	-6121
▁प्रोजेक्ट	-6122
अच्छ	-6123
▁आमाल	-6124
▁ज़रिए	-6125
▁#-#-#-#-#	-6126
सूची	-6127
▁आबंट	-6128
▁जायेंगे	-6129
ंबित	-6130
▁दाम	-6131
▁समितियों	-6132
बाजी	-6133
व्यवहार	-6134
▁शैक्षणिक	-6135
ia	-6136
▁फिट	-6137
▁फीस	-6138
▁अकार	-6139
▁अनाज	-6140
▁व्युत्	-6141
▁re	-6142
▁पट	-6143
▁१५	-6144
पंथी	-6145
▁सकी	-6146
▁सिंध	-6147
संरचना	-6148
▁पोस्ट	-6149
▁इन्सान	-6150
▁बहस	-6151
▁फ्रे	-6152
▁अकेला	-6153
▁जादूगर	-6154
▁परिभाषा	-6155
▁साक्ष्य	-6156
▁अग्नि	-6157
▁सावधानी	-6158
संघ	-6159
श्रे	-6160
पोषण	-6161
▁नवा	-6162
निर्भर	-6163
▁मौलिक	-6164
▁संदेय	-6165
▁सम्बंध	-6166
गरी	-6167
शोथ	-6168
▁झि	-6169
▁धम	-6170
▁अवय	-6171
▁उन्म	-6172
▁डालें	-6173
▁मानता	-6174
▁नवम्बर	-6175
विचार	-6176
▁रखकर	-6177
▁कोष	-6178
▁अमरीकी	-6179
▁महाभारत	-6180
▁बीस	-6181
▁इच्छ	-6182
कलापों	-6183
▁कुफ्र	-6184
▁तरीकों	-6185
▁वैज्ञानिकों	-6186
सेना	-6187
▁com	-6188
▁खून	-6189
▁अभिदाता	-6190
सलों	-6191
▁सहारा	-6192
▁पोजीशन	-6193
▁व्यस्त	-6194
क्‍	-6195
जिन	-6196
▁जू	-6197
▁उपास	-6198
▁नस्ल	-6199
▁वरीय	-6200
▁लंबाई	-6201
▁शानदार	-6202
स्ट्रेलिया	-6203
▁चाँ	-6204
▁गाँव	-6205
▁दीक्षा	-6206
▁निकालने	-6207
▁परत	-6208
.2014	-6209
ng	-6210
फाई	-6211
ंतरित	-6212
च्छिक	-6213
▁झुका	-6214
▁कीजिए	-6215
▁संतोष	-6216
▁हस्तक्षेप	-6217
▁सैन्य	-6218
▁दरबार	-6219
▁हटाएँ	-6220
▁विद्रोह	-6221
निस	-6222
लास	-6223
▁सतत	-6224
▁पदों	-6225
▁चिन्ह	-6226
▁पुकारा	-6227
▁इंजीनियर	-6228
▁श्वे	-6229
दाताओं	-6230
तुम्हारे	-6231
▁अट	-6232
▁गुजर	-6233
▁ढूंढें	-6234
र्दू	-6235
▁उठे	-6236
▁कायम	-6237
▁दलील	-6238
▁प्रसंस्करण	-6239
ंधन	-6240
ेंडर	-6241
▁पान	-6242
विमर्श	-6243
▁पथभ्र	-6244
▁बोलते	-6245
▁प्रक्रियाओं	-6246
देशों	-6247
▁लाएँ	-6248
ज़ख़	-6249
▁पाप	-6250
▁फार	-6251
▁रामा	-6252
▁मुद्दे	-6253
क्कर	-6254
देशक	-6255
लयों	-6256
▁शर्त	-6257
▁औरतें	-6258
▁विक्रय	-6259
▁अवधारणा	-6260
▁गाँ	-6261
वस्तु	-6262
हारिक	-6263
▁उतनी	-6264
▁कॉपी	-6265
▁तकलीफ	-6266
▁प्रतिफल	-6267
▁प्रतिकूल	-6268
▁सकारात्मक	-6269
▁दाहिने	-6270
प्रद	-6271
▁तिल	-6272
▁2012	-6273
▁व्यवस्थित	-6274
▁एल्	-6275
▁बंदर	-6276
▁संतुलन	-6277
▁वनस्पति	-6278
▁वसू	-6279
▁एजेंस	-6280
▁कमज़ोर	-6281
▁निष्ठा	-6282
्यक	-6283
▁खात	-6284
▁2001	-6285
▁अंकित	-6286
▁190	-6287
द्दीन	-6288
▁टर्मिन	-6289
▁प्रसाद	-6290
▁उल्लिखित	-6291
▁समुदायों	-6292
ंदगी	-6293
चन्द	-6294
पत्ति	-6295
▁कोशिकाओं	-6296
स्‍त	-6297
▁प्रतिदिन	-6298
▁जाह	-6299
▁सरी	-6300
▁सच्ची	-6301
▁क्रियान्व	-6302
▁कारक	-6303
▁दर्जे	-6304
रखाव	-6305
▁आकलन	-6306
तापूर्वक	-6307
खों	-6308
पीएस	-6309
▁भंग	-6310
▁डालते	-6311
▁वस्तुत	-6312
▁दुर्भाग्य	-6313
▁विश्वसनीय	-6314
▁स्वप्न	-6315
केल	-6316
▁दर्शाता	-6317
ट्स	-6318
▁पाता	-6319
▁याची	-6320
▁परिचित	-6321
▁प्रको	-6322
▁प्रांत	-6323
सम्बर	-6324
षद्	-6325
ैंक	-6326
उसके	-6327
देशी	-6328
▁हलाल	-6329
्रेडिट	-6330
कलाप	-6331
क्राम	-6332
▁2019	-6333
▁क्लि	-6334
▁अभिगम	-6335
▁आँखों	-6336
▁ग्राहकों	-6337
ग्न	-6338
▁नामः	-6339
▁क्रमा	-6340
▁मंजूरी	-6341
ay	-6342
ंसी	-6343
वीडी	-6344
▁अफग	-6345
▁यानी	-6346
▁झों	-6347
▁आखिर	-6348
▁मिश्रण	-6349
तन्य	-6350
स्टी	-6351
▁आँक	-6352
▁रखती	-6353
▁विभेद	-6354
▁निकाले	-6355
▁बडी	-6356
▁शोर	-6357
▁2008	-6358
▁कामया	-6359
▁स्तरों	-6360
▁अलबत्ता	-6361
▁गांधीजी	-6362
▁जमी	-6363
▁हमला	-6364
▁मक्का	-6365
टेल	-6366
बारी	-6367
▁हमे	-6368
▁विनय	-6369
▁पीड़ित	-6370
▁यथार्थ	-6371
वाहित	-6372
▁गुणा	-6373
ov	-6374
▁नाइ	-6375
▁राजक	-6376
▁लानत	-6377
▁स्टेट	-6378
▁आह्वान	-6379
▁हाज़िर	-6380
▁प्रश्नों	-6381
गोलिक	-6382
▁कर्ण	-6383
कन	-6384
मुच	-6385
▁पाकी	-6386
▁सीखने	-6387
-3	-6388
धारित	-6389
▁औजार	-6390
▁संभाल	-6391
बों	-6392
▁खतरे	-6393
▁क्रमशः	-6394
▁विभागों	-6395
ld	-6396
फेसर	-6397
▁जुड़	-6398
▁गुणों	-6399
▁कलाकार	-6400
▁व्यापारी	-6401
▁सम्पत्ति	-6402
13	-6403
ण्ट	-6404
▁पढ	-6405
▁बेट	-6406
▁मान्य	-6407
सिंह	-6408
▁पोल	-6409
▁बोला	-6410
▁श्रीमती	-6411
िद	-6412
ूकता	-6413
▁बिता	-6414
पाई	-6415
▁कहां	-6416
▁क़ाबू	-6417
▁जितने	-6418
▁आदमियों	-6419
▁गतिविधि	-6420
चु	-6421
▁गुरू	-6422
▁मधुम	-6423
पैग़म्बर	-6424
भौ	-6425
णिक	-6426
▁भूत	-6427
▁रोगों	-6428
▁लगाते	-6429
▁घनिष्ठ	-6430
▁डिग्री	-6431
▁संभवतः	-6432
▁रिकॉर्ड	-6433
▁अमरीका	-6434
▁विवरणी	-6435
tr	-6436
दादा	-6437
मुझे	-6438
▁अहं	-6439
▁असली	-6440
▁राहे	-6441
▁अनुमोदित	-6442
▁पुस्तकें	-6443
▁प्रासंगिक	-6444
डीई	-6445
▁स्वि	-6446
▁एजेंसी	-6447
▁अक्ट	-6448
▁सूचित	-6449
▁जर्मनी	-6450
▁प्रतिलि	-6451
कर्म	-6452
र्वेद	-6453
▁कैसी	-6454
स्परिक	-6455
▁लेखकों	-6456
▁क्रेडिट	-6457
▁प्रभार्य	-6458
▁न्यायालयों	-6459
षे	-6460
ind	-6461
▁गंत	-6462
▁डूब	-6463
▁नरे	-6464
▁हार्ड	-6465
▁गुज़	-6466
▁तीर्थ	-6467
▁सिद्धान्त	-6468
छो	-6469
▁फौ	-6470
▁माय	-6471
▁उग्र	-6472
▁जंगल	-6473
▁चलाया	-6474
▁प्रजनन	-6475
▁संपन्न	-6476
ार्थियों	-6477
▁पुकारते	-6478
उनकी	-6479
लांग	-6480
▁औषध	-6481
▁सिं	-6482
▁सम्बन्धित	-6483
र्जन	-6484
▁चावल	-6485
▁क़ादिर	-6486
▁चैतन्य	-6487
▁115	-6488
▁लार	-6489
▁कट्ट	-6490
▁साहब	-6491
▁मिस्र	-6492
▁मुताब	-6493
▁उपायों	-6494
▁किन्हीं	-6495
▁घुट	-6496
▁पक्षी	-6497
▁करम	-6498
▁नवी	-6499
लियों	-6500
▁निधन	-6501
▁संपदा	-6502
▁ग्रस्त	-6503
▁प्रशांत	-6504
▁भौगोलिक	-6505
▁विद्वानों	-6506
ल्य	-6507
▁धा	-6508
ल्लम	-6509
वेशन	-6510
AME	-6511
ब्रेरी	-6512
▁अंग्रेज	-6513
▁जवाहरलाल	-6514
th	-6515
तब	-6516
पोर्ट	-6517
▁अमान	-6518
▁ईरान	-6519
▁एकदम	-6520
▁कृति	-6521
▁तात्	-6522
▁शांत	-6523
मौ	-6524
ाफ	-6525
▁नास	-6526
▁शराब	-6527
▁तसबीह	-6528
▁राजभाषा	-6529
नहीं	-6530
विष्ट	-6531
▁सर्वि	-6532
ायें	-6533
कियों	-6534
▁ज़बर	-6535
▁प्रशास	-6536
कना	-6537
वाँ	-6538
ीदा	-6539
▁खज	-6540
▁आश्र	-6541
um	-6542
विन	-6543
▁or	-6544
▁कस	-6545
काया	-6546
न्तर	-6547
भक्त	-6548
▁रिज़	-6549
▁उतारी	-6550
▁अर्पित	-6551
▁आरक्षित	-6552
▁लोकतांत्रिक	-6553
▁तम	-6554
▁दार्	-6555
▁भरें	-6556
▁उर्दू	-6557
▁लिखते	-6558
▁वरीयता	-6559
▁हजारों	-6560
▁टाल	-6561
▁डिब	-6562
▁कृपा	-6563
▁आंशिक	-6564
▁प्रोफेसर	-6565
▁प्रस्तावित	-6566
▁रॉ	-6567
▁टेक्	-6568
▁सचमुच	-6569
▁भगवान्	-6570
▁प्रतिमा	-6571
काएँ	-6572
जीवी	-6573
▁दुःख	-6574
▁वर्मा	-6575
▁वसूली	-6576
▁तत्त्व	-6577
केंड	-6578
▁ज्यो	-6579
दायित्व	-6580
ोक्ताओं	-6581
▁मज़बूत	-6582
व्यों	-6583
▁दुकान	-6584
▁लिखना	-6585
▁अक्टूबर	-6586
▁संलग्नक	-6587
▁फलस्वरूप	-6588
आरए	-6589
▁पूज	-6590
▁बरस	-6591
▁डाली	-6592
▁प्राप	-6593
▁संगणना	-6594
▁मक़	-6595
▁गर्मी	-6596
▁पथभ्रष्ट	-6597
▁कम्प्यूटर	-6598
▁जॉ	-6599
हारी	-6600
▁टाइप	-6601
▁उठाना	-6602
▁शेयरों	-6603
ष्कार	-6604
▁अभ्यास	-6605
बिल	-6606
लेखन	-6607
▁con	-6608
▁अद्व	-6609
▁जाया	-6610
▁नदियों	-6611
एमई	-6612
गुण	-6613
▁ज्व	-6614
▁दीजिए	-6615
▁अपराधी	-6616
▁सेक्टर	-6617
▁अधिकारिता	-6618
▁ष	-6619
▁आपसी	-6620
▁करेंः	-6621
▁दशकों	-6622
▁किले	-6623
▁जागरूकता	-6624
ेड	-6625
ेस	-6626
नेह	-6627
▁अहि	-6628
▁खबर	-6629
▁मेह	-6630
▁प्लस	-6631
▁मोटर	-6632
▁सेंट	-6633
▁आंकड़ा	-6634
▁पुराना	-6635
▁इकाइयों	-6636
▁पारस्परिक	-6637
उसकी	-6638
▁अमर	-6639
▁उपज	-6640
▁जैन	-6641
▁झूठे	-6642
▁आधारभूत	-6643
▁वास्तविकता	-6644
शोधन	-6645
▁अर्ज	-6646
▁शासक	-6647
▁विवेक	-6648
▁दुश्मन	-6649
▁तृ	-6650
▁पड़ो	-6651
▁अर्जन	-6652
▁रामायण	-6653
▁2002	-6654
▁अतीत	-6655
▁निगाह	-6656
▁फायदे	-6657
▁लड़का	-6658
▁हिमाचल	-6659
▁वेद	-6660
▁चलती	-6661
ter	-6662
ener	-6663
चेंज	-6664
्‍या	-6665
▁होगे	-6666
▁भांति	-6667
▁वैदिक	-6668
▁वैकल्प	-6669
ानिस्तान	-6670
▁देशवासियों	-6671
पद	-6672
समा	-6673
सास	-6674
▁लिपि	-6675
▁बेटों	-6676
हक़	-6677
इयां	-6678
▁पनाह	-6679
▁भक्त	-6680
क्तियों	-6681
▁दिसम्बर	-6682
▁पूर्ववर्ती	-6683
्रीम	-6684
▁आपदा	-6685
▁फोल्डर	-6686
▁उत्पादक	-6687
-200	-6688
▁घेर	-6689
▁बनना	-6690
▁दूँगा	-6691
▁सहयोगी	-6692
▁दिखायें	-6693
▁अखिल	-6694
▁विजे	-6695
▁तीनों	-6696
▁सम्राट	-6697
▁पसंदीदा	-6698
▁व्यावहारिक	-6699
बाई	-6700
▁गईं	-6701
ख्वाह	-6702
ालयों	-6703
▁ग्रे	-6704
▁होगें	-6705
▁संगठित	-6706
▁वैकल्पिक	-6707
▁प्रोटोकॉल	-6708
▁90	-6709
▁अरु	-6710
▁आशय	-6711
▁हलाक	-6712
▁उत्तेज	-6713
▁अलं	-6714
▁रहम	-6715
▁लिप	-6716
▁कहें	-6717
▁आतंकवादी	-6718
▁विज्ञप्ति	-6719
▁सिक	-6720
▁अधिसूचित	-6721
▁उपलब्धता	-6722
▁प्रतिष्ठा	-6723
▁प्रयोक्ता	-6724
10	-6725
▁तद	-6726
▁नज	-6727
साइटी	-6728
ब्ल्यू	-6729
▁डालने	-6730
पेश	-6731
भूषण	-6732
लामी	-6733
▁आएँ	-6734
्रेता	-6735
▁फसलों	-6736
▁योजनाएं	-6737
▁उन्होनें	-6738
गीय	-6739
साई	-6740
▁आधा	-6741
▁साधनों	-6742
▁अजी	-6743
▁समू	-6744
▁पृथक	-6745
▁सिरे	-6746
eat	-6747
भाषण	-6748
▁झील	-6749
वही	-6750
▁इंत	-6751
▁ख़ा	-6752
ड़ीसा	-6753
▁चढ़ा	-6754
▁हटाने	-6755
▁गारंटी	-6756
▁अंग्रेजों	-6757
ेंड	-6758
▁मण	-6759
जनों	-6760
▁सकल	-6761
▁आएगी	-6762
▁गद्य	-6763
▁अंततः	-6764
▁प्लेट	-6765
▁अपनाने	-6766
▁कार्यरत	-6767
▁सत्यापित	-6768
/2	-6769
od	-6770
्टा	-6771
बाही	-6772
▁सड़	-6773
▁पैसा	-6774
▁बनता	-6775
▁चुकता	-6776
ुमान	-6777
▁गढ़	-6778
नीतिक	-6779
▁वन्य	-6780
▁एहसान	-6781
▁चीज़ें	-6782
▁प्रतिबि	-6783
०००	-6784
▁असल	-6785
बरदार	-6786
▁प्रॉ	-6787
▁समूद	-6788
▁गंतव्य	-6789
▁दक्षता	-6790
▁देखोगे	-6791
▁शास्त्र	-6792
▁जीवों	-6793
वत्	-6794
▁मारा	-6795
▁यहीं	-6796
▁माइक्रो	-6797
▁2020	-6798
▁भरने	-6799
▁बताता	-6800
▁भरपूर	-6801
▁सोसाइटी	-6802
▁प्रमाणित	-6803
▁प्रावधानों	-6804
▁सूच	-6805
▁पहलुओं	-6806
▁साक्षी	-6807
RAN	-6808
ंक्शन	-6809
▁कार्यालयों	-6810
▁75	-6811
▁तेरा	-6812
▁संधि	-6813
▁तीसरा	-6814
▁हथियार	-6815
▁व्यष्टि	-6816
क्तिक	-6817
▁मुल्क	-6818
▁क्रांतिक	-6819
आत	-6820
ंबे	-6821
▁हकदार	-6822
▁फरमाया	-6823
▁बडे	-6824
▁सम्पन्न	-6825
▁प्रभावशाली	-6826
▁4.	-6827
हरों	-6828
दनी	-6829
उनके	-6830
▁इरादा	-6831
▁तथ्यों	-6832
▁सुन्दर	-6833
▁परिवर्तनों	-6834
▁झूठा	-6835
----	-6836
बहुत	-6837
▁तुझ	-6838
▁क़समें	-6839
▁दोज़ख़	-6840
▁सन्देह	-6841
▁डिप	-6842
▁ईंधन	-6843
▁कट्टर	-6844
▁आस्तियों	-6845
ap	-6846
ारण	-6847
र्ता	-6848
▁1999	-6849
▁वाहन	-6850
▁शंकर	-6851
▁लाभों	-6852
▁राष्ट्रों	-6853
ण्	-6854
चाह	-6855
▁ढूँ	-6856
त्रिम	-6857
तन्त्र	-6858
os	-6859
जत	-6860
▁जानना	-6861
▁मतभेद	-6862
▁बहादुर	-6863
थित	-6864
लाइ	-6865
▁हां	-6866
वास्त	-6867
▁राज़ी	-6868
▁दार्शन	-6869
▁बिन्दु	-6870
▁पाकीज़ा	-6871
▁प्रतिदान	-6872
आउट	-6873
▁पेय	-6874
▁कचरा	-6875
▁दस्तावेजों	-6876
एव	-6877
िरण	-6878
▁कीटों	-6879
▁स्रोतों	-6880
राय	-6881
ोरि	-6882
▁दिमाग	-6883
▁अधिकृत	-6884
,–	-6885
80	-6886
▁कारा	-6887
▁आकांक्षा	-6888
▁लंदन	-6889
▁बताते	-6890
▁स्तरीय	-6891
ँग	-6892
▁मोड़	-6893
▁रहित	-6894
▁लेबल	-6895
▁ठहराया	-6896
▁टर्मिनल	-6897
▁लक्ष्यों	-6898
▁बेर	-6899
▁उभार	-6900
▁मेहन	-6901
▁पेट्रोल	-6902
age	-6903
his	-6904
दूत	-6905
र्फ़	-6906
▁भूख	-6907
▁पचास	-6908
▁गिनती	-6909
▁श्वेत	-6910
¥	-6911
▁उन्हे	-6912
▁भाग्य	-6913
विश्वास	-6914
▁ब्राह्मण	-6915
ुद्ध	-6916
▁बचने	-6917
▁रोकते	-6918
▁अंशदान	-6919
▁मुहम्मद	-6920
▁शीर्षिका	-6921
▁साझेदारी	-6922
संख	-6923
▁36	-6924
▁वाम	-6925
▁आईडी	-6926
▁आयकर	-6927
▁कमाई	-6928
▁गणित	-6929
▁कृतज्ञता	-6930
▁भव	-6931
पसंद	-6932
▁घास	-6933
जहन्न	-6934
सूत्र	-6935
▁ख़ौफ	-6936
वृद्धि	-6937
▁नकारात्मक	-6938
▁व्यापारिक	-6939
▁प्रतिबद्धता	-6940
परा	-6941
▁बट	-6942
▁टीका	-6943
▁भुला	-6944
▁बालों	-6945
hat	-6946
टिक	-6947
▁दम	-6948
eather	-6949
▁लाखों	-6950
▁डीवीडी	-6951
▁खिलाड़ी	-6952
▁विचारधारा	-6953
¤	-6954
▁नकद	-6955
▁बहन	-6956
▁समापन	-6957
▁परोक्ष	-6958
▁विडियो	-6959
▁सलाहकार	-6960
▁स्वाधीन	-6961
▁अध्यक्षता	-6962
▁कार्यान्वित	-6963
स्सा	-6964
▁भाइयों	-6965
▁कानूनों	-6966
▁ख्वाहिश	-6967
▁फ़ाइलों	-6968
40	-6969
ंसक	-6970
▁वय	-6971
▁{0}	-6972
▁उलट	-6973
▁घात	-6974
▁अपनाई	-6975
▁पुरूष	-6976
▁प्रबल	-6977
▁उत्तरदायित्व	-6978
मरा	-6979
पुरुष	-6980
निर्माण	-6981
क्ल	-6982
ियॉ	-6983
▁खर	-6984
▁पश	-6985
▁गीता	-6986
▁नर्म	-6987
▁पीछा	-6988
▁भाष्	-6989
▁राज़	-6990
ाधिकार	-6991
▁ज्योति	-6992
▁मंत्रि	-6993
▁सारांश	-6994
▁रचनात्मक	-6995
इंड	-6996
कने	-6997
▁होटल	-6998
▁केंद्रों	-6999
8)	-7000
▁बलि	-7001
▁मेघ	-7002
संचार	-7003
कंप	-7004
क़े	-7005
लीन	-7006
▁फुट	-7007
▁वसी	-7008
▁पाना	-7009
59	-7010
li	-7011
भोग	-7012
▁पडे	-7013
ानिर्	-7014
▁टिकट	-7015
▁वांछ	-7016
▁चेन्न	-7017
▁नमूना	-7018
▁अनुक्रम	-7019
▁वस्तुएं	-7020
▁चोरी	-7021
▁सीता	-7022
▁अस्थि	-7023
▁पिछला	-7024
▁समझना	-7025
पर्य	-7026
▁अपार	-7027
▁ट्यूब	-7028
▁किराये	-7029
ॉग	-7030
बीन	-7031
▁ईंट	-7032
▁घाट	-7033
▁कोर्ट	-7034
▁संक्रिया	-7035
-9	-7036
ेंच	-7037
ापरी	-7038
▁करूँ	-7039
▁श्रो	-7040
▁सूरज	-7041
जीविका	-7042
▁पड़ते	-7043
▁पड़ने	-7044
▁आख़ेरत	-7045
▁उड़ीसा	-7046
▁प्रवासी	-7047
▁सौभाग्य	-7048
लोक	-7049
▁टि	-7050
▁बाक़ी	-7051
▁महानि	-7052
▁आकर्षण	-7053
▁मानकों	-7054
▁प्रसारण	-7055
▁पन	-7056
▁आदर	-7057
▁जाग	-7058
▁बचे	-7059
▁१९९	-7060
▁इंग्लैंड	-7061
▁७	-7062
▁जता	-7063
▁नाह	-7064
▁मरियम	-7065
आईटी	-7066
ब्बा	-7067
▁बहि	-7068
▁लोकसभा	-7069
▁अभिभाषण	-7070
▁शिक्षित	-7071
▁स्वच्छता	-7072
▁स्थितियों	-7073
किस	-7074
▁दिश	-7075
▁जिलों	-7076
▁मजबूर	-7077
▁प्रतिवादी	-7078
▁यहूद	-7079
▁वृत्ति	-7080
▁लाइब्रेरी	-7081
▁फो	-7082
तायात	-7083
▁ब्रे	-7084
▁तबाही	-7085
▁निकाह	-7086
▁पढ़ते	-7087
▁कुशलता	-7088
ew	-7089
▁HT	-7090
▁मौका	-7091
▁कृत्रिम	-7092
▁भावनाओं	-7093
▁सुधारों	-7094
2)	-7095
डू	-7096
भाई	-7097
ेरा	-7098
ल्ले	-7099
▁बिन	-7100
▁मचा	-7101
▁बर्फ	-7102
कारिता	-7103
पीसी	-7104
▁जुल	-7105
▁मला	-7106
▁भड़क	-7107
▁मनपसंद	-7108
▁देनेवाला	-7109
ef	-7110
▁इष्ट	-7111
▁अगरचे	-7112
▁क़रार	-7113
▁लगाकर	-7114
▁देवताओं	-7115
▁सोल	-7116
▁खनिज	-7117
▁आस्था	-7118
▁ऑफ़लाइन	-7119
▁भागीदार	-7120
25	-7121
ul	-7122
िकीय	-7123
शुल्क	-7124
▁सौंद	-7125
▁अकादमी	-7126
षी	-7127
▁ढल	-7128
▁आवरण	-7129
▁आवेद	-7130
▁चाहो	-7131
▁मेमो	-7132
▁शल्य	-7133
▁परेशान	-7134
तिल	-7135
ुलिप	-7136
▁अटल	-7137
▁एहद	-7138
▁तदन	-7139
▁तस्	-7140
▁पुल	-7141
▁डरता	-7142
▁बेहिश्त	-7143
▁सैनिकों	-7144
▁प्राधिकृत	-7145
ML	-7146
हद	-7147
तेह	-7148
मुना	-7149
्राव	-7150
▁189	-7151
▁ढेर	-7152
स्फोट	-7153
▁अंडे	-7154
▁भव्य	-7155
▁निचले	-7156
▁मिलना	-7157
▁दुर्लभ	-7158
▁Comment	-7159
▁यातायात	-7160
ूनी	-7161
हवीं	-7162
▁पेर	-7163
▁हाइ	-7164
संबंध	-7165
▁आईटी	-7166
▁छुट्टी	-7167
▁सच्चाई	-7168
▁स्मारक	-7169
▁जरूरतों	-7170
▁अपेक्षाकृत	-7171
मस	-7172
ज़न	-7173
ैली	-7174
▁१०	-7175
▁खाल	-7176
▁कैंसर	-7177
▁नारायण	-7178
▁पहुँची	-7179
भास	-7180
म्पा	-7181
▁समेक	-7182
▁एजेंसियों	-7183
▁कुट	-7184
▁स्तन	-7185
▁पार्ट	-7186
▁संचित	-7187
▁दीक्षांत	-7188
सद	-7189
काना	-7190
व्यापी	-7191
▁लम्बी	-7192
▁इजाज़त	-7193
▁देखेंगे	-7194
▁परिश्रम	-7195
चाप	-7196
▁टेलीफोन	-7197
▁स्कूलों	-7198
पय	-7199
्यूम	-7200
▁आवि	-7201
▁मतदान	-7202
▁नज़दीक	-7203
▁पंजाबी	-7204
▁मानदंड	-7205
ध्व	-7206
द्रास	-7207
▁क्रय	-7208
▁पाये	-7209
▁पूछे	-7210
▁फ्रेम	-7211
▁बहुमत	-7212
▁विफलः	-7213
▁प्लगिन	-7214
▁असामान्य	-7215
किम	-7216
अपना	-7217
ामिन	-7218
ॉक्स	-7219
▁दूँ	-7220
▁रेड	-7221
▁हैस	-7222
▁हाउस	-7223
▁इंदिरा	-7224
▁उद्यमों	-7225
▁करनेवाली	-7226
bo	-7227
प्ल	-7228
▁रन	-7229
.2015	-7230
▁शाखाओं	-7231
▁मोहम्मद	-7232
▁हिस्सों	-7233
▁आत्मनिर्भर	-7234
6)	-7235
ईं	-7236
णे	-7237
समझ	-7238
▁हज	-7239
▁सना	-7240
▁तनाव	-7241
▁पुनरा	-7242
▁ड्राइव	-7243
▁प्रवर्तन	-7244
▁प्रणालियों	-7245
ृंग	-7246
▁फट	-7247
▁एमएस	-7248
▁हँसी	-7249
▁पेशेवर	-7250
▁मुकदमा	-7251
▁पूर्णतः	-7252
ताअत	-7253
▁असी	-7254
हमारी	-7255
▁उत्सव	-7256
▁कार्बन	-7257
▁मरम्मत	-7258
▁विदेशों	-7259
बस	-7260
▁o	-7261
ारक	-7262
खुदा	-7263
▁गर्भा	-7264
▁सारणी	-7265
▁प्राणी	-7266
▁समर्पण	-7267
▁पूर्णता	-7268
िफ	-7269
पीआई	-7270
▁नाक	-7271
शिक्ष	-7272
स्तीन	-7273
▁नामा	-7274
▁हुये	-7275
▁पीड़ा	-7276
▁बताने	-7277
श्रेष्ठ	-7278
▁निवारण	-7279
▁चाहूंगा	-7280
▁संकल्पना	-7281
un	-7282
श्‍	-7283
▁कंध	-7284
▁दिखाए	-7285
▁पाओगे	-7286
▁ज़िक्र	-7287
▁वितरित	-7288
▁साझीदार	-7289
अन	-7290
▁नाय	-7291
▁रिट	-7292
▁वाइ	-7293
▁हरा	-7294
सूचना	-7295
▁बरकत	-7296
▁वैष्ण	-7297
▁इन्हीं	-7298
▁परंपरागत	-7299
निया	-7300
▁खेत	-7301
▁ऊँचाई	-7302
weather	-7303
▁उत्कृष्टता	-7304
▁घन	-7305
▁संतुष्ट	-7306
डीएफ	-7307
▁कुम	-7308
▁बनाओ	-7309
▁इमारत	-7310
▁बम	-7311
वाणी	-7312
▁कड़	-7313
▁चलना	-7314
▁पैनल	-7315
▁आंकड़े	-7316
▁गवर्नर	-7317
▁हड़	-7318
▁घटित	-7319
▁कुबूल	-7320
▁केडीई	-7321
▁तीसरी	-7322
▁आजीविका	-7323
▁चिकित्सक	-7324
र्मी	-7325
▁जगत	-7326
▁बिग	-7327
पोरेट	-7328
▁मंडप	-7329
▁खातों	-7330
▁मानने	-7331
▁धनराशि	-7332
▁शर्तें	-7333
ers	-7334
त्रि	-7335
▁धोखे	-7336
सायनिक	-7337
▁व्याख्यान	-7338
१९	-7339
ort	-7340
णता	-7341
मंच	-7342
ग्रा	-7343
टकों	-7344
▁गले	-7345
▁सहे	-7346
▁2003	-7347
▁क्लिप	-7348
▁पूछते	-7349
▁ट्रांस	-7350
▁अनिवासी	-7351
ूमत	-7352
▁45	-7353
▁वैसी	-7354
▁संगत	-7355
▁संदेशों	-7356
▁अवसंरचना	-7357
▁डु	-7358
ोल्ड	-7359
▁बादल	-7360
▁पत्रों	-7361
▁साक्षा	-7362
▁प्रचालन	-7363
▁मुख्यतः	-7364
कै	-7365
जरत	-7366
सम्	-7367
▁गलती	-7368
▁पाठक	-7369
▁समाम	-7370
▁अनुचित	-7371
▁मद्रास	-7372
▁कार्यकारी	-7373
र्भ	-7374
▁0.	-7375
▁ज़बान	-7376
ानुभूति	-7377
▁मुशरिक	-7378
जक	-7379
’’	-7380
ंकी	-7381
▁कराई	-7382
▁नौका	-7383
▁मोहन	-7384
▁निक्ष	-7385
▁अस्वीकार	-7386
उसका	-7387
खाना	-7388
हाबाद	-7389
चन्द्र	-7390
▁कराता	-7391
▁८	-7392
खार	-7393
▁नम	-7394
▁ओवर	-7395
▁2011	-7396
▁उत्पादकता	-7397
▁धान	-7398
▁अतएव	-7399
कोर	-7400
क़ात	-7401
▁उदय	-7402
बार्ड	-7403
2.	-7404
ig	-7405
ंगें	-7406
ण्डल	-7407
विंद	-7408
▁ओपन	-7409
▁सृजित	-7410
त्रियों	-7411
▁कवियों	-7412
▁संयोजन	-7413
हान	-7414
▁प्रदत्त	-7415
▁आयुर्वेद	-7416
▁व्युत्पन्न	-7417
ताप	-7418
ऊँगा	-7419
पक्व	-7420
▁अवल	-7421
▁घुस	-7422
▁धूम	-7423
र्कों	-7424
▁अड्ड	-7425
▁इस्प	-7426
▁वृत्त	-7427
ँट	-7428
ंर	-7429
थन	-7430
फ़त	-7431
विदा	-7432
योग्य	-7433
▁बगैर	-7434
▁वाणी	-7435
▁श्रेण	-7436
कक्ष	-7437
ताकि	-7438
▁जरुर	-7439
▁गाड़ी	-7440
▁दिखाना	-7441
▁इंजीनियरी	-7442
mp	-7443
ग्स	-7444
सेल	-7445
ेयर	-7446
▁ताज	-7447
▁कालेज	-7448
▁उपेक्षा	-7449
्रु	-7450
▁ढाँ	-7451
▁पशुओं	-7452
▁होस्ट	-7453
▁पहुँचने	-7454
▁मित्रता	-7455
▁समकालीन	-7456
▁विकासशील	-7457
▁उपलब्धियों	-7458
▁OF	-7459
जाने	-7460
▁नाश	-7461
▁मंगल	-7462
▁आँखें	-7463
▁अज्ञान	-7464
▁रिश्ते	-7465
▁फूँ	-7466
▁नकदी	-7467
▁कर्मों	-7468
▁ज़रूरत	-7469
ुरु	-7470
ड़कर	-7471
▁ऊतक	-7472
▁क्यू	-7473
▁खोजें	-7474
▁माननीय	-7475
70	-7476
ric	-7477
ंचल	-7478
रेत	-7479
▁फाइ	-7480
▁चौथा	-7481
▁बढ़ो	-7482
▁निरूप	-7483
▁इस्पात	-7484
▁रखरखाव	-7485
▁सौंदर्य	-7486
▁लीग	-7487
▁बाढ़	-7488
▁खतरनाक	-7489
ठीक	-7490
्चर	-7491
्पण	-7492
▁वें	-7493
▁वैय	-7494
▁सीन	-7495
▁कंपन	-7496
▁जुटा	-7497
▁हमपर	-7498
▁निपटान	-7499
▁समामेल	-7500
▁परिपक्व	-7501
ER	-7502
शास	-7503
▁माध	-7504
▁TRAN	-7505
▁नौकर	-7506
▁मणिप	-7507
▁स्वै	-7508
्टवेयर	-7509
भूतियों	-7510
▁अन्याय	-7511
▁मुकाबले	-7512
▁प्रॉक्सी	-7513
ूल्य	-7514
▁मग़	-7515
▁वजन	-7516
▁उत्‍	-7517
▁गयीं	-7518
▁घाटा	-7519
▁मुहा	-7520
▁औज़ार	-7521
▁कृत्य	-7522
▁निमित	-7523
▁लम्बे	-7524
▁संजाल	-7525
▁सेंटर	-7526
▁इन्द्र	-7527
▁जिन्ना	-7528
वो	-7529
ईमान	-7530
स्सी	-7531
▁कोण	-7532
▁बडा	-7533
.2016	-7534
न्नों	-7535
▁हैसियत	-7536
▁पहाड़ों	-7537
▁सितम्बर	-7538
ड्	-7539
ORS	-7540
गृह	-7541
ताज	-7542
वेल	-7543
हीत	-7544
खाने	-7545
▁मत्	-7546
▁परवाह	-7547
▁रचनाओं	-7548
▁महासागर	-7549
राष्ट्रपति	-7550
▁परिस्थिति	-7551
▁(0	-7552
▁फूट	-7553
▁शादी	-7554
फ़ारिश	-7555
▁टैगोर	-7556
▁डोमेन	-7557
▁सुनकर	-7558
▁सुनाई	-7559
▁पब्लिक	-7560
लाप	-7561
SLAT	-7562
SLATORS	-7563
▁मध्यस्थ	-7564
▁वस्तुतः	-7565
▁सामान्यतया	-7566
▁TRANSLATORS	-7567
wor	-7568
पीठ	-7569
क्षे	-7570
▁188	-7571
▁इबर	-7572
▁नरम	-7573
▁नूर	-7574
▁शब्	-7575
श्चित	-7576
▁दलों	-7577
▁रूपये	-7578
▁शक्तियां	-7579
▁स्ट्रिंग	-7580
▁अंग्रेज़ी	-7581
गान	-7582
तिपय	-7583
श्ती	-7584
▁गोरा	-7585
▁सुनी	-7586
ानुसार	-7587
▁दार्शनिक	-7588
बाप	-7589
▁5.	-7590
▁अच	-7591
▁देह	-7592
▁सोचते	-7593
▁इलाकों	-7594
▁व्यर्थ	-7595
▁विज्ञापन	-7596
▁रखनेवालों	-7597
ड़ो	-7598
प्रण	-7599
▁दांत	-7600
▁अनन्त	-7601
▁कोयला	-7602
▁प्रातः	-7603
▁एक्सचेंज	-7604
▁प्रशिक्षित	-7605
ke	-7606
आईसी	-7607
▁पते	-7608
▁इताअत	-7609
▁बढ़ता	-7610
▁त्वरित	-7611
▁प्रिंटर	-7612
घन	-7613
रन	-7614
▁चट	-7615
▁नल	-7616
प्रथम	-7617
▁रूपरेखा	-7618
▁प्रतिलिपि	-7619
▁संवेदनशील	-7620
▁प्रतिस्पर्धा	-7621
तिज	-7622
ष्म	-7623
▁नक्	-7624
▁बंबई	-7625
▁लगने	-7626
▁दिशानिर्	-7627
मोहन	-7628
▁फौरन	-7629
▁मन्द	-7630
▁माउस	-7631
त्यक्ष	-7632
▁संगणक	-7633
15	-7634
▁कव	-7635
लिये	-7636
िकरण	-7637
त्मकता	-7638
▁पढ़ाई	-7639
▁हरिया	-7640
▁नवाचार	-7641
▁सिर्फ़	-7642
▁33	-7643
▁टक	-7644
गोया	-7645
▁आदत	-7646
▁ऊंची	-7647
▁सकने	-7648
▁कुदरत	-7649
▁विधिक	-7650
नत	-7651
रह	-7652
दाह	-7653
▁वेश	-7654
ज्ज़त	-7655
▁2004	-7656
▁संदत्त	-7657
▁कविताओं	-7658
▁रिज़र्व	-7659
▁विनियमन	-7660
▁अफगानिस्तान	-7661
नेस	-7662
ूलन	-7663
प्रा	-7664
ष्‍ट	-7665
▁दीं	-7666
▁मील	-7667
▁कथित	-7668
▁हिला	-7669
▁उत्पा	-7670
▁कार्मिक	-7671
▁प्रोटीन	-7672
▁राजमार्ग	-7673
कहीं	-7674
▁बिट	-7675
स्टिक	-7676
▁बेकार	-7677
▁संकलन	-7678
▁संवेदना	-7679
भुत	-7680
▁ह्र	-7681
▁बालक	-7682
दृष्टि	-7683
▁अंतरित	-7684
▁दीवारों	-7685
स्से	-7686
▁गूगल	-7687
▁नुक़	-7688
स्तीनी	-7689
▁मेहनत	-7690
▁शासित	-7691
▁आकर्षक	-7692
▁एशियाई	-7693
▁ड़	-7694
▁चखा	-7695
▁मंग	-7696
▁बांट	-7697
क्षरता	-7698
▁छोड़े	-7699
TP	-7700
अगर	-7701
ौलत	-7702
▁अय	-7703
▁फू	-7704
▁नमक	-7705
प्रदायिक	-7706
▁नाबार्ड	-7707
▁परिकल्पना	-7708
तत्व	-7709
म्मा	-7710
ग़ैरह	-7711
▁किला	-7712
▁दौरा	-7713
▁अपवाद	-7714
▁२०	-7715
▁गेह	-7716
▁अवकाश	-7717
▁फूलों	-7718
▁खुल्लम	-7719
▁दिखाते	-7720
▁सर्वथा	-7721
स्कर	-7722
▁छोड	-7723
▁बेस	-7724
▁रूह	-7725
न्हें	-7726
▁सौंपा	-7727
▁कहानियों	-7728
▁पहुंचाने	-7729
ायल	-7730
कुफ्	-7731
▁मुआ	-7732
▁नजात	-7733
▁सवाब	-7734
▁ग्रीन	-7735
▁क़्यों	-7736
▁मौजिज़े	-7737
▁सम्बद्ध	-7738
ess	-7739
पटा	-7740
र्थी	-7741
▁Con	-7742
लेमान	-7743
▁आजाद	-7744
▁अखबार	-7745
▁गर्दन	-7746
ष्टाचार	-7747
▁मेमोरी	-7748
▁शान्ति	-7749
▁शुरूआत	-7750
डों	-7751
▁जंगली	-7752
▁नाट्य	-7753
▁मराठी	-7754
गंध	-7755
▁70	-7756
▁बश	-7757
भांश	-7758
▁आवृ	-7759
▁प्या	-7760
▁सफाई	-7761
▁रोज़े	-7762
▁सृष्टि	-7763
▁ज्यादातर	-7764
▁रासायनिक	-7765
▁धूप	-7766
▁संब	-7767
▁प्रभु	-7768
▁सहभाग	-7769
▁वर्गीकरण	-7770
ूरो	-7771
क्के	-7772
ालों	-7773
▁मेज	-7774
▁कबीर	-7775
▁यूआर	-7776
▁क्रोध	-7777
▁ठहराते	-7778
▁रंगमंच	-7779
ट्टा	-7780
िश्ता	-7781
▁किमी	-7782
▁मरने	-7783
▁वादी	-7784
▁आमदनी	-7785
▁हज़ार	-7786
▁बांग्लादेश	-7787
फु	-7788
रीद	-7789
▁it	-7790
▁बोध	-7791
दर्शक	-7792
▁डालो	-7793
▁वरन्	-7794
▁हममें	-7795
▁इंजीनियरिंग	-7796
▁करू	-7797
▁हरी	-7798
▁मोती	-7799
▁कतिपय	-7800
▁किनारा	-7801
▁बढ़ाना	-7802
▁सर्वश्रेष्ठ	-7803
▁;	-7804
बेल	-7805
गांठ	-7806
▁अपर	-7807
▁विट	-7808
▁अजीब	-7809
▁ऊंचे	-7810
▁निबंध	-7811
▁पकड़े	-7812
▁ब्रह्मा	-7813
▁स्त्रियाँ	-7814
▁उज	-7815
▁पठ	-7816
olor	-7817
अच्छे	-7818
▁रहीं	-7819
▁मानों	-7820
▁निमित्त	-7821
▁पार्श्व	-7822
खिक	-7823
वीर	-7824
▁आधे	-7825
▁एन्	-7826
▁मसल	-7827
▁शपथ	-7828
▁शेर	-7829
▁राधा	-7830
▁सबका	-7831
lab	-7832
▁मैच	-7833
▁निपटने	-7834
मैन	-7835
िट्	-7836
र्दों	-7837
▁स्पर्श	-7838
▁सहानुभूति	-7839
हमने	-7840
▁कंट	-7841
▁देन	-7842
निहित	-7843
▁इनको	-7844
▁नर्स	-7845
▁नायक	-7846
▁मनाया	-7847
▁सार्थ	-7848
त्तियों	-7849
▁शास्त्रीय	-7850
ढे	-7851
हासन	-7852
रेकीन	-7853
▁घेरे	-7854
▁दस्त	-7855
▁फलों	-7856
▁विधा	-7857
▁पूछता	-7858
वैधानिक	-7859
▁निवेदन	-7860
▁एकत्रित	-7861
▁प्रतिरोध	-7862
कोष	-7863
गित	-7864
नाई	-7865
लंका	-7866
लेखा	-7867
▁कोर	-7868
▁वसा	-7869
▁सोम	-7870
▁बचपन	-7871
▁मेगा	-7872
▁अन्वेष	-7873
▁रजिस्ट्री	-7874
yp	-7875
tle	-7876
शिप	-7877
▁st	-7878
वर्ग	-7879
ैतिज	-7880
▁इंस	-7881
▁नोडल	-7882
▁निराश	-7883
▁भत्ता	-7884
▁मिटाना	-7885
▁क्रांतिकारी	-7886
नाइ	-7887
टिंग	-7888
▁किल	-7889
▁पीछ	-7890
प्राय	-7891
▁धोखा	-7892
▁बीबी	-7893
▁माहौल	-7894
▁लौटने	-7895
▁अन्जाम	-7896
▁निवेशकों	-7897
▁बल्लेबाज	-7898
22	-7899
▁१२	-7900
▁बेटी	-7901
▁मौज़	-7902
▁सौदा	-7903
▁रद्दी	-7904
▁गणतंत्र	-7905
▁स्वाधीनता	-7906
▁९	-7907
▁नं	-7908
ित्य	-7909
▁तरल	-7910
▁माउ	-7911
▁त्रिप	-7912
▁गरीबों	-7913
▁ज्यादती	-7914
हल	-7915
▁घृ	-7916
▁चक	-7917
ज्जा	-7918
▁नोक	-7919
▁महो	-7920
▁1956	-7921
▁2010	-7922
▁आलेख	-7923
▁पाइप	-7924
▁शाही	-7925
▁बरबाद	-7926
▁चित्रण	-7927
▁टुकड़ा	-7928
7)	-7929
II	-7930
हृ	-7931
वानि	-7932
▁भूट	-7933
स्मृति	-7934
▁अभिने	-7935
▁खरीदने	-7936
▁निर्गम	-7937
▁बढ़ाया	-7938
▁फरिश्ते	-7939
▁सर्वज्ञ	-7940
▁प्रतिज्ञा	-7941
▁परियोजनाएं	-7942
तिक्र	-7943
▁विस्फोट	-7944
▁सिफ़ारिश	-7945
दाम	-7946
दाबाद	-7947
▁उपर्य	-7948
▁पक्का	-7949
▁बैकअप	-7950
▁बोलने	-7951
▁पेट्रोलियम	-7952
ऊद	-7953
जय	-7954
चंद	-7955
nome	-7956
▁उम्मत	-7957
▁बनाती	-7958
▁उन्नयन	-7959
▁उपग्रह	-7960
▁हुकूमत	-7961
याम	-7962
लिफ़	-7963
▁आवं	-7964
▁ड्रा	-7965
▁ख़िला	-7966
▁वसीयत	-7967
निर्देश	-7968
▁तत्कालीन	-7969
टीय	-7970
महा	-7971
▁तप	-7972
▁दमन	-7973
युद्ध	-7974
▁हर्ष	-7975
▁ट्रेड	-7976
▁अधिवेशन	-7977
▁मिश्रित	-7978
▁मोमिनों	-7979
िरा	-7980
टीएम	-7981
रक्षण	-7982
▁बढ़े	-7983
▁मोटे	-7984
त्याशित	-7985
▁रजिस्टर	-7986
▁2,	-7987
▁मरी	-7988
▁ख़ैर	-7989
▁नाहक़	-7990
▁साकार	-7991
▁वैष्णव	-7992
▁जाएँगें	-7993
क़्	-7994
िणी	-7995
▁ra	-7996
▁इबरत	-7997
▁जज़ा	-7998
▁मानस	-7999
▁घोड़े	-8000
▁छिपाते	-8001
▁परहेज़गारी	-8002
शिंग	-8003
स्टे	-8004
▁प्य	-8005
▁लाई	-8006
तानों	-8007
▁सुगम	-8008
▁पुष्प	-8009
▁आज्ञाकारी	-8010
ैब	-8011
त्सव	-8012
प्पा	-8013
▁दंत	-8014
▁सुनो	-8015
क्रामक	-8016
▁खोजने	-8017
▁वाक्य	-8018
▁पर्यवे	-8019
▁सभापति	-8020
▁प्रजाति	-8021
टित	-8022
द्म	-8023
▁त्यो	-8024
निश्चय	-8025
▁फॉर्म	-8026
राइल	-8027
वाने	-8028
▁जरा	-8029
शिल्प	-8030
▁हमले	-8031
▁गाँधी	-8032
िपी	-8033
वकों	-8034
▁केश	-8035
निर्ण	-8036
▁रहकर	-8037
▁बॉक्स	-8038
▁सचिवाल	-8039
▁अनुशासन	-8040
▁बंदरगाह	-8041
▁सार्वभौ	-8042
कीर	-8043
बड़ी	-8044
श्यक	-8045
▁सेक	-8046
▁गोली	-8047
▁शरार	-8048
▁छोड़ें	-8049
▁मजदूरी	-8050
▁राजाओं	-8051
▁इलाहाबाद	-8052
नस	-8053
रब	-8054
▁क्यो	-8055
▁सूजन	-8056
▁बनायी	-8057
▁अनुभाग	-8058
▁यात्री	-8059
▁संवैधानिक	-8060
कौ	-8061
▁नॉ	-8062
ख़बर	-8063
दीक़	-8064
▁गेट	-8065
▁लाह	-8066
▁वास्तु	-8067
▁अनुकम्पा	-8068
▁परहेज़गार	-8069
टके	-8070
महल	-8071
ख़्या	-8072
▁पढ़ी	-8073
▁उपहार	-8074
▁निभाई	-8075
▁संप्र	-8076
फलक	-8077
▁गठ	-8078
नाडा	-8079
समूह	-8080
▁बसव	-8081
▁विय	-8082
▁लाभांश	-8083
▁नुक़सान	-8084
▁लेखापरी	-8085
▁ब्राउज़र	-8086
▁फिलीस्तीनी	-8087
उल	-8088
ंबा	-8089
शोर	-8090
र्ते	-8091
▁चिर	-8092
काव्य	-8093
▁कोने	-8094
lation	-8095
▁नामों	-8096
▁सरदारों	-8097
▁सशस्त्र	-8098
राक	-8099
▁बछ	-8100
ज्जित	-8101
▁ऊँची	-8102
▁खजूर	-8103
▁फ़ाय	-8104
▁गुलाम	-8105
ख्तियार	-8106
सामग्री	-8107
कूट	-8108
रांत	-8109
▁ढाल	-8110
▁हिल	-8111
▁अवशेष	-8112
▁आंखों	-8113
▁आभूषण	-8114
▁प्रदर्शक	-8115
▁हस्तांतरण	-8116
39	-8117
ैश	-8118
ितु	-8119
▁ठे	-8120
▁वग	-8121
क़ूब	-8122
नियम	-8123
▁चखो	-8124
▁असंग	-8125
▁आपात	-8126
▁छिपी	-8127
▁समझी	-8128
▁समझो	-8129
▁दरख्त	-8130
▁मुकदमे	-8131
▁समीकरण	-8132
▁मुद्रित	-8133
▁\	-8134
▁आजकल	-8135
▁परदा	-8136
▁रुजू	-8137
▁कारगर	-8138
▁सरीही	-8139
▁परिचालन	-8140
▁दूरसंचार	-8141
▁परहेज़गारों	-8142
ेत	-8143
जील	-8144
उनसे	-8145
बर्ग	-8146
▁ठाक	-8147
▁हाई	-8148
▁ऊंचा	-8149
▁कलाम	-8150
▁अवतार	-8151
▁स्वाय	-8152
IL	-8153
{0}	-8154
जुट	-8155
▁2009	-8156
▁पाँव	-8157
▁मज़े	-8158
आर्थिक	-8159
▁स्क्रिप्ट	-8160
▁अमृत	-8161
▁पैरों	-8162
▁संतान	-8163
▁आनुवंश	-8164
▁शास्त्री	-8165
▁संव्यवहार	-8166
▁हिन्दुस्तान	-8167
ब्बे	-8168
▁आन्द	-8169
▁अहिंसा	-8170
▁फिल्टर	-8171
▁स्तम्भ	-8172
▁आज़माइश	-8173
▁संरक्षित	-8174
ree	-8175
▁150	-8176
किताब	-8177
फ़ाइल	-8178
▁निषे	-8179
मूर्ति	-8180
▁असंभव	-8181
▁डालना	-8182
▁बदलना	-8183
▁निराशा	-8184
▁लाएँगे	-8185
▁स्थलों	-8186
▁विकलांग	-8187
ोपण	-8188
तकों	-8189
▁वाक	-8190
lic	-8191
रेटर	-8192
▁अवगत	-8193
▁नींव	-8194
ढ़ियों	-8195
▁अग्रे	-8196
▁मंजूर	-8197
▁श्रद्धांजलि	-8198
75	-8199
पृ	-8200
ज्जु	-8201
ियाद	-8202
ुकला	-8203
▁कुर	-8204
▁सड़कों	-8205
▁पूर्वोत्तर	-8206
आइ	-8207
एफसी	-8208
फिक़	-8209
शिला	-8210
▁(5)	-8211
▁अपन	-8212
▁ग़ु	-8213
कार्ड	-8214
▁सूरत	-8215
▁अद्	-8216
▁इल्	-8217
▁रुस	-8218
▁ठहरे	-8219
▁देनी	-8220
▁पैग़	-8221
धिकारिक	-8222
▁सेनाओं	-8223
MA	-8224
मुखी	-8225
स्पी	-8226
ॉर्ट	-8227
▁नील	-8228
▁खोला	-8229
फ्रेंस	-8230
▁अन्दा	-8231
▁उपभोग	-8232
▁बाज़ार	-8233
▁श्रीलंका	-8234
ct	-8235
ंघा	-8236
पटल	-8237
▁रसी	-8238
▁दत्त	-8239
▁चक्कर	-8240
▁नतीजा	-8241
▁संकाय	-8242
▁स्विच	-8243
▁भड़कती	-8244
▁सर्विस	-8245
▁translat	-8246
▁कार्यपालिका	-8247
राबी	-8248
▁फॉर	-8249
▁बुत	-8250
वर्धन	-8251
▁राजी	-8252
▁स्वे	-8253
▁पुराण	-8254
▁अपूर्ण	-8255
▁राजपत्र	-8256
▁राष्ट्री	-8257
▁प्राप्तकर्ता	-8258
▁नृ	-8259
ting	-8260
▁वर्षगांठ	-8261
▁समस्याएं	-8262
आज	-8263
डीए	-8264
सरत	-8265
रसूल	-8266
िएशन	-8267
विशेष	-8268
▁आईसी	-8269
▁औषधि	-8270
▁धमकी	-8271
▁बाएं	-8272
▁एकजुट	-8273
▁कच्चे	-8274
▁क़ब्ल	-8275
▁दादाओं	-8276
▁बरसाया	-8277
▁वक्तव्य	-8278
▁समायोजन	-8279
▁झुठलाओगे	-8280
▁महानिदेशक	-8281
परक	-8282
खण्ड	-8283
बड़े	-8284
्रीट	-8285
▁घोष	-8286
▁इन्त	-8287
▁कतरा	-8288
▁तुम्	-8289
▁सालों	-8290
▁क्षैतिज	-8291
▁पाबन्दी	-8292
▁परिणामों	-8293
▁मंत्रालयों	-8294
/%	-8295
.11	-8296
अर्	-8297
टरी	-8298
▁रै	-8299
▁अटक	-8300
▁कोमल	-8301
साधारण	-8302
▁बनाएं	-8303
▁मोहलत	-8304
▁समर्थक	-8305
▁निर्माता	-8306
▁उम्मीदवार	-8307
▁(.	-8308
▁शर	-8309
गोरि	-8310
पहले	-8311
बाज़	-8312
▁185	-8313
▁ताक	-8314
▁लखन	-8315
▁आगमन	-8316
▁रेशम	-8317
▁सुचर	-8318
▁चेहरा	-8319
▁स्क्र	-8320
वैज्ञान	-8321
▁नियंत्रक	-8322
▁प्रवाहित	-8323
18	-8324
दक	-8325
.10	-8326
लीस	-8327
▁छः	-8328
चाहे	-8329
धारकों	-8330
▁विधाय	-8331
▁सुदूर	-8332
▁तदनुसार	-8333
▁वैयक्तिक	-8334
▁दीर्घकालिक	-8335
-4	-8336
nu	-8337
ओएस	-8338
ांक	-8339
▁me	-8340
▁सटी	-8341
चंद्र	-8342
▁कोरो	-8343
▁पादप	-8344
▁नमूने	-8345
▁अनुकरण	-8346
▁परिसंप	-8347
▁विवेकान	-8348
▁अपराधियों	-8349
ॉजी	-8350
▁अव्य	-8351
▁निवे	-8352
▁बतौर	-8353
▁बेहद	-8354
▁भीड़	-8355
▁स्थूल	-8356
▁आँकड़ा	-8357
▁छोड़ने	-8358
▁डाक्टर	-8359
▁नाटकों	-8360
▁डाटाबेस	-8361
▁मनोरंजन	-8362
▁संग्राम	-8363
▁राजकुमार	-8364
▁अप्रत्याशित	-8365
ीर	-8366
चाना	-8367
▁छेद	-8368
▁आवासी	-8369
▁सुलेमान	-8370
,%	-8371
▁is	-8372
ताबे	-8373
▁दिव	-8374
▁फलक	-8375
▁1947	-8376
▁इराक	-8377
▁एसोस	-8378
▁ग्लो	-8379
▁नाफर	-8380
▁स्वाद	-8381
▁ग्रन्थ	-8382
99	-8383
काज	-8384
साफ	-8385
▁ईस	-8386
फूज़	-8387
ल्कि	-8388
कारियों	-8389
▁गोपनीय	-8390
▁नियोजन	-8391
▁निर्धन	-8392
▁उपनिवेश	-8393
▁ज़बरदस्त	-8394
mi	-8395
चौ	-8396
नम	-8397
रानी	-8398
▁गंध	-8399
स्मिक	-8400
▁गोवा	-8401
▁बेचने	-8402
▁करूँगा	-8403
▁संग्रहण	-8404
end	-8405
दाद	-8406
▁धूल	-8407
▁गोपन	-8408
▁गोला	-8409
क्साइड	-8410
▁चिंतन	-8411
▁सन्देश	-8412
▁महामारी	-8413
डऋ	-8414
▁44	-8415
▁पॉलि	-8416
▁बेहत	-8417
▁हल्का	-8418
▁जोड़ना	-8419
▁वग़ैरह	-8420
▁किताबों	-8421
▁पक्षियों	-8422
▁उपर्युक्त	-8423
▁केन्द्रों	-8424
ुलर	-8425
▁वीं	-8426
▁विलो	-8427
▁लड़ने	-8428
▁अंतर्व	-8429
▁जाननेवाला	-8430
भागी	-8431
माला	-8432
सीडी	-8433
▁सेन	-8434
होंने	-8435
▁शोषण	-8436
▁ठाकुर	-8437
▁इच्छुक	-8438
▁नीतिगत	-8439
▁पड़ोसी	-8440
▁ऑप	-8441
देवी	-8442
▁होश	-8443
मताओं	-8444
▁एहकाम	-8445
▁सेवानि	-8446
▁एख्तेयार	-8447
▁पूर्णतया	-8448
▁मुशरेकीन	-8449
▁प्रतिवर्ष	-8450
▁वास्तुकला	-8451
nd	-8452
ूण	-8453
vir	-8454
तरह	-8455
द्दा	-8456
▁दुश	-8457
▁विघ	-8458
▁हंस	-8459
▁ख्या	-8460
▁कानों	-8461
▁सुनवाई	-8462
▁अद्वितीय	-8463
▁उत्तराधिकारी	-8464
oo	-8465
नीत	-8466
पहर	-8467
स्मार	-8468
▁आशंका	-8469
▁हानिक	-8470
▁हालात	-8471
▁मेहरबानी	-8472
erv	-8473
सिया	-8474
▁कैश	-8475
▁चित	-8476
च्छेदन	-8477
ुदायिक	-8478
▁अंगों	-8479
▁अपितु	-8480
▁दरवाजे	-8481
▁निकलते	-8482
▁सिखाया	-8483
▁चित्रित	-8484
▁सिंहासन	-8485
▁पर्यटकों	-8486
ौदा	-8487
▁बृह	-8488
▁शीत	-8489
▁अवयव	-8490
भारतीय	-8491
▁कमीशन	-8492
▁जोड़ी	-8493
▁सुचरिता	-8494
कती	-8495
▁इट	-8496
▁अशोक	-8497
▁पटेल	-8498
पत्रों	-8499
▁कपड़ा	-8500
▁टेनिस	-8501
▁हारून	-8502
▁मुहैया	-8503
▁दै	-8504
ग़ैर	-8505
सेवा	-8506
▁माफ़	-8507
▁तुल्य	-8508
▁भूटान	-8509
▁मारने	-8510
▁सोचने	-8511
▁डॉक्टर	-8512
▁अवस्थित	-8513
▁स्थिरता	-8514
▁आधिकारिक	-8515
ast	-8516
hou	-8517
सन्द	-8518
ायों	-8519
ष्कृत	-8520
▁हाइड	-8521
▁गार्ड	-8522
▁जीवंत	-8523
▁रणनीति	-8524
▁प्रस्तावों	-8525
17	-8526
बद	-8527
ect	-8528
ासा	-8529
ख़्त	-8530
म्बा	-8531
चिकित	-8532
▁बांस	-8533
▁दीर्घा	-8534
▁आकस्मिक	-8535
.12	-8536
ड्र	-8537
▁01	-8538
ड्डी	-8539
मिया	-8540
▁मुम	-8541
▁वृद्ध	-8542
▁शब्दा	-8543
▁अतिमान	-8544
▁नेताजी	-8545
▁परिषद्	-8546
▁महफूज़	-8547
▁सचिवालय	-8548
▁स्टार्ट	-8549
▁उत्सर्जन	-8550
1)	-8551
कोई	-8552
पाट	-8553
वचन	-8554
ियस	-8555
▁अशु	-8556
▁फर्	-8557
▁डालर	-8558
▁बरसात	-8559
▁तालिका	-8560
▁भेदभाव	-8561
मेर	-8562
▁02	-8563
▁झे	-8564
▁अनाथ	-8565
▁ट्रा	-8566
▁बातिल	-8567
▁प्रशंस	-8568
▁पर्यावरणीय	-8569
इसी	-8570
▁केस	-8571
यंत्र	-8572
▁इसहा	-8573
वास्तव	-8574
▁मुफ्त	-8575
▁प्रचुर	-8576
▁घरवालों	-8577
▁मंत्रियों	-8578
,"	-8579
ve	-8580
▁ग्रा	-8581
▁चाँद	-8582
▁बीवी	-8583
▁सब्ज	-8584
▁प्रबन्ध	-8585
▁विनिधान	-8586
stel	-8587
▁मुअ	-8588
ज्ञाप	-8589
▁अज्र	-8590
▁पागल	-8591
▁हफ्त	-8592
▁खासकर	-8593
▁धारित	-8594
▁नवीनतम	-8595
▁याक़ूब	-8596
▁संकेतक	-8597
▁निरन्तर	-8598
▁सूचीबद्ध	-8599
▁वॉ	-8600
▁माफ	-8601
.2013	-8602
▁सुपु	-8603
▁तालाब	-8604
▁शिर्क	-8605
▁इसहाक़	-8606
▁नवीकरण	-8607
▁प्रदेशों	-8608
▁ज़िम्मेदारी	-8609
ोड	-8610
भुज	-8611
ल्लत	-8612
▁टॉगल	-8613
▁स्ला	-8614
▁तरीक़े	-8615
▁ख़बरदार	-8616
▁दर्शाया	-8617
शक	-8618
सिड	-8619
्‍त	-8620
▁जॉन	-8621
▁शेख	-8622
परेशन	-8623
▁बताए	-8624
▁मेन्यू	-8625
ुति	-8626
णुओं	-8627
ैक्ट	-8628
▁ऋतु	-8629
▁नकल	-8630
▁बड़	-8631
▁सन्त	-8632
▁मर्या	-8633
▁मणिपुर	-8634
ुड	-8635
ोद	-8636
आपको	-8637
ब्बत	-8638
वाया	-8639
▁पहना	-8640
▁भेजना	-8641
▁स्वर्ग	-8642
▁चित्रकला	-8643
▁छे	-8644
▁आधी	-8645
न्दों	-8646
▁अंदा	-8647
▁कर्ज	-8648
▁समता	-8649
▁अफसोस	-8650
▁जानों	-8651
▁पूजते	-8652
▁स्टार	-8653
▁दुर्गा	-8654
▁प्रेषक	-8655
▁सुधारने	-8656
ँजी	-8657
िज़	-8658
▁आरा	-8659
▁कमे	-8660
▁एण्ड	-8661
▁दाऊद	-8662
▁पावर	-8663
▁शर्म	-8664
▁सूचक	-8665
▁कनाडा	-8666
▁किराए	-8667
▁गीतों	-8668
▁निकला	-8669
▁प्रकोप	-8670
▁सामुदायिक	-8671
▁स्वीकार्य	-8672
खने	-8673
▁गज	-8674
▁URL	-8675
▁लोप	-8676
दस्ती	-8677
▁आगरा	-8678
▁हरित	-8679
▁साक्षरता	-8680
▁विस्तारित	-8681
फॉ	-8682
लापन	-8683
▁ऊँट	-8684
▁गड़	-8685
▁जैविक	-8686
▁बदौलत	-8687
▁अनुभूति	-8688
ोश	-8689
चाल	-8690
यित	-8691
▁be	-8692
▁मेड	-8693
▁शिष्ट	-8694
▁उपयोगिता	-8695
▁अप्रत्यक्ष	-8696
ss	-8697
▁’	-8698
ंडे	-8699
▁बक	-8700
▁मीम	-8701
तीकरण	-8702
▁आघात	-8703
▁उठता	-8704
स्थापन	-8705
▁रोशनी	-8706
▁उन्मूलन	-8707
▁महाद्वीप	-8708
▁रूपांतरण	-8709
-5	-8710
सह	-8711
ड़का	-8712
▁गरि	-8713
▁छोर	-8714
▁यौन	-8715
▁आर्य	-8716
▁रेगि	-8717
▁आश्रम	-8718
▁बताना	-8719
▁अनुभवों	-8720
▁त्योहार	-8721
▁बेटियाँ	-8722
▁लड़कियों	-8723
stellation	-8724
▁न्यायपालिका	-8725
ile	-8726
ऐसा	-8727
तीन	-8728
ताएं	-8729
▁पॉप	-8730
दोनों	-8731
▁कन्न	-8732
▁जाहिर	-8733
▁दोपहर	-8734
▁मास्ट	-8735
▁इसलिये	-8736
▁जिंदगी	-8737
▁टिप्पण	-8738
▁सांख्य	-8739
▁स्नातक	-8740
ोष्ठ	-8741
▁लहर	-8742
▁किंग	-8743
▁बजाए	-8744
▁रोचक	-8745
▁लखनऊ	-8746
▁फिरते	-8747
▁रंगों	-8748
▁हरियाणा	-8749
▁मुख्यालय	-8750
▁गतिविधियां	-8751
.%	-8752
▁34	-8753
लाइट	-8754
▁तित	-8755
▁रिम	-8756
▁आगामी	-8757
▁मुन्त	-8758
▁झुठलाते	-8759
▁बीवियों	-8760
▁सम्भावना	-8761
▁प्रतिनिधियों	-8762
IS	-8763
ON	-8764
थल	-8765
▁इल	-8766
▁ध्य	-8767
▁सता	-8768
▁दिखला	-8769
बेहिश्त	-8770
▁उर्वरक	-8771
▁जाएँगी	-8772
▁मजदूरों	-8773
▁क़्योंकि	-8774
ah	-8775
ुश	-8776
▁चलाए	-8777
▁देहा	-8778
▁चलाएँ	-8779
▁नोटिस	-8780
▁धर्मों	-8781
▁समेकित	-8782
▁सर्वप्रथम	-8783
▁मैत्रीपूर्ण	-8784
जुल	-8785
षकों	-8786
▁अनो	-8787
▁पतन	-8788
▁रोड	-8789
क़्ति	-8790
द्वार	-8791
▁नींद	-8792
▁पांव	-8793
▁पेशी	-8794
▁झिल्ली	-8795
▁क्षमताओं	-8796
▁इस्लामवादी	-8797
▁48	-8798
▁इधर	-8799
▁खनन	-8800
▁गुट	-8801
▁सैक	-8802
▁अतिथि	-8803
▁उड़ान	-8804
▁महान्	-8805
▁करेगें	-8806
▁निर्वाह	-8807
तौ	-8808
पूरा	-8809
▁पटल	-8810
▁सिने	-8811
▁ग्यार	-8812
▁कोरिया	-8813
लेस	-8814
▁जगा	-8815
▁ज्या	-8816
▁मधुमेह	-8817
▁सार्थक	-8818
▁मॉड्यूल	-8819
▁कार्यकाल	-8820
▁प्राणियों	-8821
)-	-8822
कथा	-8823
▁कमर	-8824
▁तेलु	-8825
▁दोषी	-8826
▁सिटी	-8827
▁गतिशील	-8828
▁शस्त्र	-8829
▁संस्थागत	-8830
▁प्रस्तुति	-8831
▁पारदर्शिता	-8832
.–	-8833
निय	-8834
ल्फ	-8835
▁पाओ	-8836
▁नानक	-8837
क्टरों	-8838
▁उपाधि	-8839
▁प्रेषण	-8840
▁मामूली	-8841
▁नरेन्द्र	-8842
▁क्लिपबोर्ड	-8843
▁स्थानांतरित	-8844
.09	-8845
म्बे	-8846
ाराम	-8847
▁दरों	-8848
▁सादा	-8849
यात्रा	-8850
▁प्रजातियों	-8851
▁मुख्यमंत्री	-8852
▁साक्षात्कार	-8853
दिश	-8854
लेशन	-8855
▁चूक	-8856
▁लची	-8857
▁इंजन	-8858
▁जिसमे	-8859
▁वांछित	-8860
▁आश्वासन	-8861
▁संक्षेप	-8862
”।	-8863
01.	-8864
मलव	-8865
▁अहमद	-8866
▁कमेटी	-8867
▁तलाक़	-8868
▁पड़ोस	-8869
▁बच्चन	-8870
▁लौटकर	-8871
▁सोसाय	-8872
▁डेटाबेस	-8873
▁परेशानी	-8874
▁प्रौद्योगिकियों	-8875
▁१६	-8876
ड़की	-8877
र्चे	-8878
▁मले	-8879
▁ध्रु	-8880
▁निकलता	-8881
▁वृत्ता	-8882
विद्यालय	-8883
▁ज़्यादती	-8884
.08	-8885
हाली	-8886
▁ईस्ट	-8887
स्वामी	-8888
▁कब्जा	-8889
▁दर्जा	-8890
▁पुनर्व	-8891
आस	-8892
ine	-8893
डेट	-8894
दोष	-8895
बामा	-8896
▁मरयम	-8897
▁विवश	-8898
▁गरिमा	-8899
▁तारों	-8900
▁लौटना	-8901
▁श्रेय	-8902
▁आचार्य	-8903
▁भ्रष्टाचार	-8904
एक्स	-8905
सिटी	-8906
▁बीत	-8907
▁लाम	-8908
▁इसमे	-8909
▁नेको	-8910
▁विगत	-8911
▁उपदेश	-8912
▁कीटना	-8913
▁वाज़े	-8914
▁मजबूती	-8915
ोन्	-8916
▁कमल	-8917
▁तरा	-8918
▁दार	-8919
▁फौज	-8920
▁बगल	-8921
र्कता	-8922
▁नाफ़र	-8923
▁रोज़ा	-8924
▁सदनों	-8925
▁किराया	-8926
▁छुपाएँ	-8927
▁टाइम्स	-8928
▁शिकायतों	-8929
▁समाजवादी	-8930
▁यात्रियों	-8931
ॉस	-8932
टकर	-8933
बाबू	-8934
▁बनते	-8935
▁मुस्क	-8936
▁अधिष्ठ	-8937
▁किताबें	-8938
▁चित्रों	-8939
▁निकालना	-8940
▁यहूदियों	-8941
ड़न	-8942
टर्न	-8943
▁500	-8944
▁कों	-8945
▁खपत	-8946
▁भरत	-8947
▁मैथ	-8948
त्तीस	-8949
बल्कि	-8950
▁कारी	-8951
▁स्टॉक	-8952
▁मुद्रण	-8953
are	-8954
जिसे	-8955
ूर्व	-8956
▁300	-8957
▁पुत	-8958
▁बनो	-8959
▁शिल	-8960
title	-8961
▁गुजराती	-8962
▁स्वायत्त	-8963
य्या	-8964
्यस्त	-8965
▁छपाई	-8966
प्रदेश	-8967
▁अभिनय	-8968
▁दशमलव	-8969
▁अपशिष्ट	-8970
शान	-8971
▁रूट	-8972
▁झगड़	-8973
▁मिलन	-8974
▁खुल्ला	-8975
▁शासकों	-8976
वैज्ञानिक	-8977
▁स्वैच्छिक	-8978
ev	-8979
box	-8980
तिर	-8981
नगर	-8982
▁उम	-8983
▁पुणे	-8984
न्‍द्र	-8985
▁संघीय	-8986
▁दिलचस्प	-8987
▁अनुमानित	-8988
ोई	-8989
▁po	-8990
ज़ूर	-8991
न्‍न	-8992
भासी	-8993
▁गम्	-8994
.2019	-8995
▁हड्डी	-8996
मोहम्मद	-8997
▁जनजातीय	-8998
▁पैदावार	-8999
▁नियन्त्र	-9000
▁साझीदारी	-9001
▁अवज्ञाकारी	-9002
',	-9003
उसी	-9004
गेट	-9005
राइट	-9006
हीनता	-9007
▁कहती	-9008
▁लड़े	-9009
संख्यक	-9010
▁एजेंट	-9011
▁सोचता	-9012
न्च	-9013
▁जमे	-9014
▁विच	-9015
▁(195	-9016
▁1992	-9017
▁नेमत	-9018
▁मुहर	-9019
▁प्रगा	-9020
▁सूचका	-9021
प्रणाली	-9022
▁अब्दुल	-9023
▁उद्भूत	-9024
▁आंकड़ों	-9025
▁कार्यवाह	-9026
▁कन	-9027
तनाम	-9028
न्ता	-9029
पालन	-9030
▁चरम	-9031
▁ह्य	-9032
▁असंत	-9033
▁किरण	-9034
▁धीमी	-9035
▁बुढ़	-9036
▁वक्र	-9037
▁ज़लील	-9038
▁पाठकों	-9039
▁प्रदर्शनी	-9040
▁हार्डवेयर	-9041
,2	-9042
▁कण	-9043
▁अविल	-9044
▁कुशा	-9045
▁लोहे	-9046
▁ध्येय	-9047
▁करूंगा	-9048
▁क्रमांक	-9049
▁मूर्तिक	-9050
कस	-9051
थाम	-9052
वाट	-9053
ज़ों	-9054
न्दे	-9055
▁असह	-9056
▁अभिर	-9057
▁ख्वा	-9058
▁बाँध	-9059
▁पीछला	-9060
▁वर्तनी	-9061
राने	-9062
र्तग	-9063
▁कवर	-9064
▁खौल	-9065
▁विप	-9066
▁व्र	-9067
▁स्टाक	-9068
▁चट्टान	-9069
▁पुनर्ग	-9070
▁पेटेंट	-9071
▁पोर्टल	-9072
▁केन्द्रित	-9073
,-	-9074
बन	-9075
सीमा	-9076
▁बसा	-9077
▁बही	-9078
▁कॉर्	-9079
▁बढ़ी	-9080
▁प्रोफ	-9081
▁सीआरए	-9082
▁माँगता	-9083
▁इन्होंने	-9084
▁कंपनियां	-9085
▁परिदृश्य	-9086
▁उपभोक्ताओं	-9087
सूद	-9088
स्ते	-9089
▁आइए	-9090
▁नाल	-9091
▁रूए	-9092
▁फैले	-9093
ियारों	-9094
▁ग्रिड	-9095
▁अभिन्न	-9096
▁आन्दोलन	-9097
▁काउंसिल	-9098
▁खुशख़बरी	-9099
▁कठिनाइयों	-9100
▁विशेषाधिकार	-9101
ढा	-9102
दीन	-9103
▁विर	-9104
विवाद	-9105
▁अँधे	-9106
▁एक्ट	-9107
▁जवान	-9108
▁मूर्ख	-9109
▁गम्भीर	-9110
▁मत्स्य	-9111
▁किनारों	-9112
▁मज़दूरी	-9113
▁मुताबिक	-9114
▁किलोग्राम	-9115
▁,	-9116
ज़ब	-9117
बिट	-9118
र्सी	-9119
▁पंथ	-9120
डियों	-9121
▁अनदे	-9122
▁घृणा	-9123
▁पायी	-9124
▁अभिया	-9125
▁एक्सट	-9126
▁एल्गोरि	-9127
▁गर्भाशय	-9128
▁ईमानदारी	-9129
▁मास्टर्स	-9130
डब	-9131
त्‍य	-9132
यायी	-9133
▁बुक	-9134
▁मसी	-9135
▁रोमा	-9136
▁शोभा	-9137
▁इंकार	-9138
▁पट्टे	-9139
▁उद्यमियों	-9140
▁निर्वाचित	-9141
▁ऑस्ट्रेलिया	-9142
हब	-9143
▁1.4	-9144
▁कीं	-9145
▁चश्	-9146
▁मुक	-9147
▁वहन	-9148
बन्धन	-9149
▁अनंत	-9150
▁चर्च	-9151
▁दुखी	-9152
▁हरेक	-9153
eneric	-9154
▁आज़ाद	-9155
▁कैमरा	-9156
▁चरणों	-9157
▁जर्मन	-9158
▁दायरे	-9159
▁निंदा	-9160
▁जापानी	-9161
▁अधिकाधिक	-9162
लर	-9163
ज़ू	-9164
▁6.	-9165
मानों	-9166
र्मेट	-9167
▁आहरण	-9168
▁चारा	-9169
▁डिज़	-9170
▁रखेगा	-9171
▁लड़ते	-9172
िरपेक्ष	-9173
दिता	-9174
▁उन्नति	-9175
▁ऑपरेशन	-9176
▁जानेवाले	-9177
▁अभिव्यक्त	-9178
▁कार्यशाला	-9179
▁फिलीस्तीन	-9180
▁विशेषताओं	-9181
कॉ	-9182
्ली	-9183
▁अंज	-9184
▁ऊँचे	-9185
▁जिनपर	-9186
▁सुलझा	-9187
▁अग्रसर	-9188
▁ब्यूरो	-9189
▁सहेजने	-9190
▁आवृत्ति	-9191
▁निधियों	-9192
▁विख्यात	-9193
▁निष्पक्ष	-9194
▁परिपूर्ण	-9195
);	-9196
oog	-9197
डित	-9198
oogle	-9199
▁क्री	-9200
▁भटका	-9201
▁यानि	-9202
▁सांप	-9203
स्तरीय	-9204
▁बदलते	-9205
▁कोरोना	-9206
▁विनम्र	-9207
▁निमंत्र	-9208
▁सूचकांक	-9209
▁प्रख्यात	-9210
▁हिन्दुओं	-9211
▁सत्याग्रह	-9212
.-	-9213
ext	-9214
▁उछ	-9215
पत्य	-9216
▁but	-9217
▁रोब	-9218
▁1948	-9219
▁चुंब	-9220
▁टिका	-9221
▁प्रगाढ़	-9222
▁सतर्कता	-9223
▁सोसायटी	-9224
▁अपीलार्थी	-9225
▁प्रगतिशील	-9226
▁37	-9227
क्टरी	-9228
▁बताओ	-9229
▁बाएँ	-9230
▁मलया	-9231
सरकारी	-9232
▁स्टाफ	-9233
▁जनजाति	-9234
▁जीवाणु	-9235
▁सिक्किम	-9236
aa	-9237
रेब	-9238
िसी	-9239
▁रुए	-9240
ब्रों	-9241
रक्षा	-9242
िकेशन	-9243
▁रातों	-9244
▁प्रतिभूतियों	-9245
इंट	-9246
तको	-9247
▁खाई	-9248
ान्तर	-9249
▁इकट्	-9250
▁परदे	-9251
▁पढ़कर	-9252
▁बढ़ना	-9253
▁इंतजार	-9254
▁पुकारो	-9255
▁निकायों	-9256
▁स्मार्ट	-9257
▁विधानसभा	-9258
▁1"	-9259
▁बसे	-9260
▁संकु	-9261
▁उठाकर	-9262
▁सिंधु	-9263
▁अनुदेश	-9264
▁स्वदेशी	-9265
▁उत्पत्ति	-9266
▁निर्देशों	-9267
नीस	-9268
हें	-9269
▁ID	-9270
हार्	-9271
▁घमंड	-9272
▁मेनू	-9273
▁सजदे	-9274
▁फैसले	-9275
▁पाएंगे	-9276
▁परिपत्र	-9277
▁विशुद्ध	-9278
▁फरिश्तों	-9279
क़ु	-9280
▁लय	-9281
▁वान	-9282
▁अखंड	-9283
▁तारे	-9284
▁तेज़	-9285
▁ताज़ा	-9286
▁निदान	-9287
▁मूत्र	-9288
▁क़ुदरत	-9289
▁पुर्तग	-9290
▁फिटकार	-9291
▁वाज़ेए	-9292
▁कुफ्फार	-9293
▁मंत्रिम	-9294
▁संगोष्ठ	-9295
▁श्रमिकों	-9296
▁अनुस्मृति	-9297
-6	-9298
घो	-9299
ष्मा	-9300
▁2018	-9301
▁लायक	-9302
▁विषा	-9303
क्षमता	-9304
▁ओबामा	-9305
▁पत्ते	-9306
▁पाण्ड	-9307
▁वगैरह	-9308
▁संस्‍	-9309
▁सख्ती	-9310
▁स्नेह	-9311
▁अवलोकन	-9312
▁खिसकाएँ	-9313
▁विधियों	-9314
▁विशेषज्ञों	-9315
3.	-9316
एमएस	-9317
शीदा	-9318
ुल्य	-9319
▁असं	-9320
▁HTML	-9321
▁अश्व	-9322
▁अंगूर	-9323
▁लगेगा	-9324
िश्रमिक	-9325
▁दरवाज़े	-9326
▁दोस्तों	-9327
▁मांसपेश	-9328
▁संतुलित	-9329
▁श्रेणियों	-9330
sp	-9331
तला	-9332
श्ले	-9333
ुतोष	-9334
▁रुक	-9335
▁द्रव	-9336
▁छिद्र	-9337
▁विटामिन	-9338
▁हिंदुओं	-9339
▁निर्णायक	-9340
▁पत्नियों	-9341
▁पारिस्थित	-9342
▁अन्तर्राष्ट्रीय	-9343
pp	-9344
छोटे	-9345
भे	-9346
ृश	-9347
ान्	-9348
▁११	-9349
▁जोड	-9350
▁टेप	-9351
▁यहॉ	-9352
▁रंज	-9353
▁शंक	-9354
वक्ता	-9355
▁सिया	-9356
▁सेवन	-9357
▁संयोग	-9358
▁मुनाफ़	-9359
▁कार्यकलापों	-9360
ऐसे	-9361
ब्ध	-9362
्यौ	-9363
▁उग	-9364
पादक	-9365
ालीस	-9366
▁थोप	-9367
▁फसाद	-9368
▁बलों	-9369
▁योनि	-9370
▁काटने	-9371
▁झगड़ा	-9372
▁पंद्र	-9373
▁मौखिक	-9374
▁अनुबंध	-9375
▁निकाली	-9376
▁व्याकरण	-9377
▁संकीर्ण	-9378
47	-9379
.05	-9380
िशा	-9381
▁इश	-9382
क्रा	-9383
▁अनू	-9384
▁कोट	-9385
▁क्लब	-9386
संबंधी	-9387
▁असमान	-9388
▁झगड़े	-9389
▁दुग्ध	-9390
▁लीजिए	-9391
▁एनपीएस	-9392
▁पारदर्शी	-9393
▁अनुक्रिया	-9394
्वित	-9395
▁आचार	-9396
▁बारिश	-9397
▁अफ़सोस	-9398
▁रात्रि	-9399
▁स्वतन्त्र	-9400
▁पारिश्रमिक	-9401
han	-9402
िरों	-9403
▁फ़ी	-9404
▁फेफ	-9405
▁फार्	-9406
▁यज्ञ	-9407
▁कोष्ठ	-9408
▁पर्यटक	-9409
▁बंगाली	-9410
▁विलोपित	-9411
gu	-9412
ूर्त	-9413
न्नाथ	-9414
▁जहाँन	-9415
▁देखिए	-9416
▁महिमा	-9417
▁सालेह	-9418
▁स्नान	-9419
िपीडिया	-9420
▁अन्वेषण	-9421
▁गिरोहों	-9422
▁मूल्यवान	-9423
▁निवासियों	-9424
राद	-9425
सील	-9426
जहाँ	-9427
जहां	-9428
▁187	-9429
▁अज़	-9430
▁तक़	-9431
▁मख़	-9432
▁शैल	-9433
वित्त	-9434
▁घायल	-9435
▁अद्भुत	-9436
▁निविदा	-9437
▁मानचित्र	-9438
,5	-9439
वाय	-9440
सख्त	-9441
▁and	-9442
▁कैद	-9443
▁अन्‍	-9444
▁बहुल	-9445
▁आवेदक	-9446
▁तिहाई	-9447
▁भेजते	-9448
▁कदाचित	-9449
नाल	-9450
गुज़र	-9451
स्वती	-9452
▁अंधा	-9453
▁उन्‍	-9454
▁धारक	-9455
▁परित	-9456
▁किसने	-9457
▁पाएगा	-9458
▁व्यास	-9459
▁आदेशों	-9460
▁कीमतों	-9461
▁प्रिंट	-9462
▁अध्यापक	-9463
▁इच्छाओं	-9464
▁सहभागिता	-9465
▁7.	-9466
▁रेट	-9467
▁सिख	-9468
▁1950	-9469
▁लगाई	-9470
▁सबकी	-9471
कोडिंग	-9472
▁गेहूं	-9473
▁टेस्ट	-9474
▁भेजता	-9475
▁मंजिल	-9476
▁अर्जुन	-9477
▁आशुतोष	-9478
▁पूर्वक	-9479
▁परंपराओं	-9480
ल्ह	-9481
ंटों	-9482
यानक	-9483
▁कोविड	-9484
▁फ़साद	-9485
▁अप्रिय	-9486
▁बेहश्त	-9487
▁झुठलाने	-9488
▁निक्षेप	-9489
▁वाक़िफकार	-9490
ब्ज	-9491
च्ची	-9492
▁खैर	-9493
▁बिछ	-9494
▁1000	-9495
▁मौके	-9496
▁किशोर	-9497
▁हटाना	-9498
▁आबंटित	-9499
▁बिलियन	-9500
▁राजवंश	-9501
▁हिम्मत	-9502
▁संस्थाएं	-9503
▁जनजातियों	-9504
▁निश्चिन्त	-9505
▁प्रोफ़ाइल	-9506
णाम	-9507
ारस	-9508
ुलन	-9509
आईएस	-9510
र्षि	-9511
▁हेक्ट	-9512
▁समझाने	-9513
मद	-9514
किट	-9515
▁उधर	-9516
▁धरो	-9517
▁सोना	-9518
▁तृतीय	-9519
▁न्यूय	-9520
▁एकीकरण	-9521
▁मजिस्ट	-9522
▁बादशाही	-9523
फान	-9524
▁१७	-9525
बंधन	-9526
▁एंव	-9527
▁एजे	-9528
▁भगत	-9529
▁हॉल	-9530
▁अण्ड	-9531
▁उपनि	-9532
▁टीवी	-9533
▁दौरे	-9534
▁मिथ्या	-9535
▁विकिरण	-9536
▁अनिश्चित	-9537
▁जबर	-9538
▁नारी	-9539
▁असत्य	-9540
▁रिमोट	-9541
▁वर्षो	-9542
▁शर्मा	-9543
▁स्थाई	-9544
▁इज्ज़त	-9545
▁झगड़ते	-9546
▁पूछताछ	-9547
▁राजदूत	-9548
▁बाजारों	-9549
▁रविशंकर	-9550
▁निरपेक्ष	-9551
▁बीमारियों	-9552
▁संभावनाओं	-9553
वात	-9554
▁जनक	-9555
▁फंड	-9556
▁जाएंगी	-9557
▁इल्ज़ाम	-9558
▁जगन्नाथ	-9559
▁सुपुर्द	-9560
▁अभियुक्त	-9561
▁वार्षिकी	-9562
▁निष्पादित	-9563
▁विमानक्षेत्र	-9564
ईल	-9565
बुल	-9566
▁क़ी	-9567
▁बन्	-9568
▁लेट	-9569
वारिक	-9570
▁करों	-9571
▁ब्यौ	-9572
▁ख़ुशी	-9573
स्तियां	-9574
▁यूनियन	-9575
▁विश्राम	-9576
▁कलाकारों	-9577
ial	-9578
ory	-9579
▁राव	-9580
▁सको	-9581
▁मधुर	-9582
▁तदबीर	-9583
▁पढ़ना	-9584
र्याप्त	-9585
▁रोगियों	-9586
▁समावेशी	-9587
▁क्रियान्वयन	-9588
af	-9589
रम	-9590
सुर	-9591
ंतुक	-9592
चिह्न	-9593
स्टीट	-9594
ैसेरो	-9595
▁अन्न	-9596
▁उज्ज	-9597
▁घबरा	-9598
▁विभि	-9599
▁चुनने	-9600
▁कहलाता	-9601
▁ट्रस्ट	-9602
▁मुद्दा	-9603
▁प्रपत्र	-9604
▁ब्रैसेरो	-9605
▁अनुप्रयोगों	-9606
विष	-9607
सिब	-9608
▁एट	-9609
▁बोह	-9610
▁वाई	-9611
▁वाज	-9612
▁विधवा	-9613
▁शॉर्ट	-9614
▁अपमानित	-9615
▁प्रदाता	-9616
रेज	-9617
▁ढी	-9618
धारक	-9619
▁खुर	-9620
▁घाव	-9621
▁बिख	-9622
शियों	-9623
▁पूछें	-9624
ंत्रिकी	-9625
ुस्तानी	-9626
▁निस्बत	-9627
▁प्रदाह	-9628
▁""	-9629
लिता	-9630
▁अश्	-9631
▁चुक	-9632
▁मुर	-9633
▁नाना	-9634
▁छापें	-9635
▁असफलता	-9636
▁आवासीय	-9637
▁मिटाने	-9638
▁रोकथाम	-9639
▁नीतियां	-9640
▁विशेषताएं	-9641
▁राज्यक्षेत्र	-9642
प्स	-9643
▁1'	-9644
▁रथ	-9645
दानी	-9646
▁चोर	-9647
▁मीन	-9648
▁अवरोध	-9649
▁कार्ट	-9650
▁लक्ष्मी	-9651
▁वर्गीकृत	-9652
▁श्रीवास्तव	-9653
45	-9654
दह	-9655
ोकस	-9656
▁ग़ल	-9657
▁वनों	-9658
▁वसूल	-9659
▁फारसी	-9660
▁बशर्ते	-9661
▁फ़रमाया	-9662
ंड़	-9663
ोरा	-9664
▁हौ	-9665
atla	-9666
एसएस	-9667
नामा	-9668
▁उजा	-9669
▁गोर	-9670
▁भोग	-9671
▁कहकर	-9672
▁देरी	-9673
▁सटीक	-9674
▁सबूत	-9675
atlami	-9676
▁पहलों	-9677
रूद्दीन	-9678
▁दरगुज़र	-9679
viratlami	-9680
-7	-9681
डोर	-9682
▁hi	-9683
यंकर	-9684
शासित	-9685
▁(200	-9686
▁किस्	-9687
▁डेवल	-9688
▁धुंध	-9689
▁सल्त	-9690
▁बंगला	-9691
▁बैठने	-9692
▁वापिस	-9693
▁कामकाज	-9694
▁समकक्ष	-9695
OP	-9696
ैद	-9697
गेह	-9698
▁काय	-9699
indow	-9700
ोलॉजी	-9701
▁1998	-9702
▁चलकर	-9703
▁माला	-9704
▁समीप	-9705
▁हिमन	-9706
▁नामित	-9707
▁मार्क	-9708
▁लाहौर	-9709
▁अनुष्ठ	-9710
▁कर्तव्यों	-9711
वटी	-9712
इयाँ	-9713
भारी	-9714
▁उलटे	-9715
▁फैली	-9716
▁रोके	-9717
▁खाड़ी	-9718
▁हल्के	-9719
for	-9720
मंद	-9721
▁कैल	-9722
▁बैल	-9723
▁जुर्	-9724
▁पूरक	-9725
▁भ्रम	-9726
▁ज़रूरी	-9727
▁अत्याचारियों	-9728
ain	-9729
ख़ी	-9730
विड	-9731
किया	-9732
▁डेम	-9733
क़रार	-9734
▁विलय	-9735
▁अमानत	-9736
▁चलाना	-9737
▁जगहों	-9738
▁भूभाग	-9739
बली	-9740
▁IM	-9741
ions	-9742
▁पदक	-9743
▁अटकल	-9744
▁जगत्	-9745
▁लपेट	-9746
▁आबंटन	-9747
▁उर्वर	-9748
▁तत्पर	-9749
▁तसदीक़	-9750
▁बढ़ाकर	-9751
▁संचिका	-9752
▁मुर्दों	-9753
▁न्यायाधीशों	-9754
▁लेखापरीक्षा	-9755
ुद	-9756
सनी	-9757
▁इंद्र	-9758
▁रोकें	-9759
▁गिरावट	-9760
▁क्रियाकलाप	-9761
▁विकिपीडिया	-9762
आया	-9763
वेट	-9764
सेन	-9765
दक्ष	-9766
label	-9767
▁पटना	-9768
▁पहने	-9769
▁सुपर	-9770
▁शरारत	-9771
▁शृंखला	-9772
▁क्रियाओं	-9773
hr	-9774
ोरेशन	-9775
कृष्णन	-9776
▁चुपके	-9777
▁बिल्ड	-9778
▁भयानक	-9779
▁सहारे	-9780
▁हुकुम	-9781
▁सहभागी	-9782
▁मर्यादा	-9783
▁सूचनाओं	-9784
▁निर्माताओं	-9785
एब	-9786
गिर	-9787
▁१९८	-9788
▁फ्री	-9789
▁रूचि	-9790
▁जमाने	-9791
▁डालता	-9792
▁प्राइ	-9793
▁बदकार	-9794
.,	-9795
गीर	-9796
दण्ड	-9797
वृति	-9798
▁डिर	-9799
▁बला	-9800
पायों	-9801
▁गुला	-9802
ेन्द्र	-9803
▁फ़ज़ल	-9804
▁बग़ैर	-9805
▁भ्रमण	-9806
▁उद्यमी	-9807
▁राजकीय	-9808
▁सदियों	-9809
▁चुनावों	-9810
▁पूर्वोक्त	-9811
▁संभावनाएं	-9812
▁ऑटो	-9813
▁गणेश	-9814
▁जुदा	-9815
▁करूणा	-9816
▁शाश्व	-9817
▁पिछड़े	-9818
▁पुनर्वास	-9819
▁क्षतिपूर्ति	-9820
जै	-9821
ard	-9822
▁(&	-9823
▁गत	-9824
तिया	-9825
बर्ट	-9826
ट्रिक	-9827
▁कराए	-9828
▁गायब	-9829
▁पेशा	-9830
▁लाता	-9831
ंबेडकर	-9832
▁अपलोड	-9833
▁चालीस	-9834
▁मल्टी	-9835
▁अर्द्ध	-9836
▁पोशीदा	-9837
▁कॉन्फ़िगरेशन	-9838
ir	-9839
उत्	-9840
न्ने	-9841
▁रोम	-9842
काकुल	-9843
भक्ति	-9844
विभाग	-9845
▁रसीद	-9846
▁समेट	-9847
पश्चिम	-9848
▁किताबे	-9849
▁पाएँगे	-9850
▁कारावास	-9851
▁विचित्र	-9852
▁दिशानिर्देश	-9853
▁हन	-9854
क्यू	-9855
्युन	-9856
▁बहती	-9857
स्मारक	-9858
▁बकाया	-9859
▁हल्की	-9860
▁क़समों	-9861
▁छत्तीस	-9862
▁जांचें	-9863
▁तस्बीह	-9864
▁मक़सूद	-9865
▁कामयाबी	-9866
▁फरमाएगा	-9867
▁महिलाएं	-9868
▁लक्षणों	-9869
▁हानिकारक	-9870
our	-9871
_01.	-9872
ोचित	-9873
▁छंद	-9874
▁नली	-9875
▁सूझ	-9876
क्तता	-9877
▁जावा	-9878
▁ताजा	-9879
▁कमाया	-9880
▁स्टोर	-9881
▁आनुवंशिक	-9882
स्स	-9883
हीद	-9884
ाइट	-9885
प्रो	-9886
▁ढोल	-9887
▁what	-9888
▁आगाह	-9889
▁बहका	-9890
▁ऑंखें	-9891
▁तमन्ना	-9892
▁नारियल	-9893
▁मुकाबला	-9894
ॉय	-9895
ीयर	-9896
▁कश	-9897
क्‍त	-9898
माही	-9899
▁नाज	-9900
▁यती	-9901
▁सबब	-9902
▁तैना	-9903
▁दिखायी	-9904
▁बलिदान	-9905
▁आंबेडकर	-9906
▁वियतनाम	-9907
▁अभिवृद्धि	-9908
ज्ह	-9909
तीस	-9910
बोध	-9911
▁(4	-9912
▁तन	-9913
▁झलक	-9914
▁तीर	-9915
नेशनल	-9916
▁तख्त	-9917
▁बंधन	-9918
▁स्पी	-9919
▁खेतों	-9920
▁प्रसव	-9921
▁लॉगिन	-9922
▁ग्लोबल	-9923
▁परजीवी	-9924
▁निकालें	-9925
▁संपर्कों	-9926
▁विशेषज्ञता	-9927
.19	-9928
वियत	-9929
▁वादे	-9930
▁वारा	-9931
▁सीखा	-9932
▁स्टी	-9933
▁गुमान	-9934
▁दवाओं	-9935
▁विजेता	-9936
ँस	-9937
ंगन	-9938
यता	-9939
▁2)	-9940
वर्ण	-9941
▁URI	-9942
▁पाउ	-9943
▁हाम	-9944
▁खोले	-9945
▁मुआव	-9946
▁मेले	-9947
▁पृथक्	-9948
▁रवाना	-9949
▁सनातन	-9950
▁प्रौढ़	-9951
▁शाश्वत	-9952
▁अग्रेषित	-9953
लौ	-9954
art	-9955
जना	-9956
▁IS	-9957
मियम	-9958
स्पद	-9959
▁मरत	-9960
नागरी	-9961
▁अंधे	-9962
▁रुख़	-9963
▁स्कैन	-9964
▁तुरन्त	-9965
▁लेनदेन	-9966
▁प्रशासक	-9967
▁बदरूद्दीन	-9968
म्य	-9969
▁org	-9970
दिग्ध	-9971
▁खादी	-9972
▁लड़ी	-9973
▁2016)	-9974
▁इंस्ट	-9975
▁भयंकर	-9976
▁रहोगे	-9977
▁संचरण	-9978
▁सोचना	-9979
▁आरक्षण	-9980
▁दिशाओं	-9981
▁नर्मदा	-9982
▁यूसुफ़	-9983
▁अनुयायी	-9984
▁दिलचस्पी	-9985
▁माध्यमिक	-9986
▁ज़िम्मेदार	-9987
88	-9988
ंय	-9989
खोल	-9990
बंद	-9991
▁१३	-9992
item	-9993
ापित	-9994
▁NAME	-9995
▁आश्रय	-9996
▁जरुरत	-9997
▁बर्तन	-9998
▁कामयाब	-9999
▁बैठकों	-10000
▁सरस्वती	-10001
▁विक्रेता	-10002
ुखी	-10003
▁रच	-10004
▁१४	-10005
मरने	-10006
▁गोद	-10007
▁ताम	-10008
राधिक	-10009
▁दण्ड	-10010
▁ग्रुप	-10011
▁धरोहर	-10012
▁साँचा	-10013
▁आपत्ति	-10014
▁निरस्त	-10015
▁सौहार्	-10016
▁समायोजित	-10017
▁निर्देशित	-10018
90	-10019
काई	-10020
▁अठ	-10021
▁व्	-10022
▁लगो	-10023
वियाँ	-10024
▁1991	-10025
▁छिपे	-10026
▁पिक्	-10027
action	-10028
▁आखिरी	-10029
▁कश्ती	-10030
▁अधिग्रहण	-10031
▁कहानियाँ	-10032
▁तुल्यकाल	-10033
RO	-10034
ौप	-10035
सुन	-10036
्वल	-10037
माता	-10038
ालेख	-10039
▁पिघ	-10040
▁सफ़	-10041
मुक्त	-10042
▁उतने	-10043
▁डराओ	-10044
▁तंगी	-10045
▁ताबे	-10046
▁सब्स	-10047
प्रधान	-10048
▁खुलने	-10049
▁भ्रूण	-10050
▁हुर्इ	-10051
▁तेलुगु	-10052
▁दृढ़ता	-10053
▁सिनेमा	-10054
▁फिल्मों	-10055
▁मौज़ूदा	-10056
▁पारिवारिक	-10057
▁लड	-10058
▁कां	-10059
▁नाव	-10060
जिसके	-10061
▁टाइम	-10062
▁तटीय	-10063
▁जरुरी	-10064
▁गुज़रे	-10065
▁सल्तनत	-10066
फत	-10067
राग	-10068
▁An	-10069
ount	-10070
स्थि	-10071
▁कम्	-10072
sthis	-10073
नीकरण	-10074
पूज्य	-10075
▁चिड़ी	-10076
▁पैटर्न	-10077
▁विचारण	-10078
▁चमत्कार	-10079
▁लाभदायक	-10080
▁whatsthis	-10081
▁अपर्याप्त	-10082
▁वार्तालाप	-10083
▁आश्चर्यजनक	-10084
▁j	-10085
जाति	-10086
▁उपरो	-10087
▁घातक	-10088
▁बाबा	-10089
▁लगें	-10090
▁जानती	-10091
▁निगेह	-10092
▁मुहलत	-10093
▁बेख़बर	-10094
▁बोहतान	-10095
▁अधीनस्थ	-10096
▁एख्तियार	-10097
ैट	-10098
क्व	-10099
बास	-10100
ैंस	-10101
ोग्रा	-10102
▁ठहरने	-10103
▁बनावट	-10104
▁सोवियत	-10105
निर्धारण	-10106
▁तात्कालिक	-10107
▁दायित्वों	-10108
भंग	-10109
मेज	-10110
▁वध	-10111
▁बुश	-10112
▁जबतक	-10113
▁फिरे	-10114
▁लाकर	-10115
▁पूँजी	-10116
▁फाउंड	-10117
▁शुष्क	-10118
▁जाँचें	-10119
▁मास्टर	-10120
▁विपक्ष	-10121
▁आपराधिक	-10122
eb	-10123
▁चख	-10124
▁धनी	-10125
मिश्र	-10126
▁एकड़	-10127
▁सूखे	-10128
......	-10129
▁अब्दु	-10130
▁जेहाद	-10131
▁मसौदा	-10132
▁अभियोग	-10133
▁महर्षि	-10134
▁समुच्च	-10135
▁स्थगित	-10136
▁एमएसएमई	-10137
▁लाभप्रद	-10138
▁आधुनिकीकरण	-10139
कसा	-10140
▁षड	-10141
▁www	-10142
▁अमन	-10143
▁झेल	-10144
▁शौच	-10145
▁कुंज	-10146
▁भीतरी	-10147
▁दुर्बल	-10148
▁पंद्रह	-10149
▁मर्दों	-10150
▁यूआरएल	-10151
▁बहुमूल्य	-10152
▁अनुस्मारक	-10153
हेल	-10154
ापा	-10155
ख़ास	-10156
नायक	-10157
रहित	-10158
▁(10	-10159
▁डरे	-10160
बियों	-10161
▁चार्ट	-10162
▁उदासीन	-10163
तुम्हारी	-10164
▁आविष्कार	-10165
▁शब्दावली	-10166
▁क्षेत्रफल	-10167
▁मूर्तियों	-10168
▁प्रत्यर्थी	-10169
▁प्रमाणीकरण	-10170
.3	-10171
माद	-10172
ूपी	-10173
प्ले	-10174
कानाथ	-10175
▁करतू	-10176
▁ठहराए	-10177
▁पकड़ा	-10178
▁दुबारा	-10179
▁नाटकीय	-10180
▁निर्णयों	-10181
▁पुनर्गठन	-10182
▁क्षतिग्रस्त	-10183
लु	-10184
कावट	-10185
शियन	-10186
▁क्य	-10187
▁दाँ	-10188
▁दाल	-10189
▁सती	-10190
ग्राम	-10191
▁अम्ल	-10192
▁पाती	-10193
▁म्यू	-10194
▁करुणा	-10195
▁दिखता	-10196
▁अनुज्ञा	-10197
▁समन्वित	-10198
▁रखनेवाले	-10199
▁मूर्तिकला	-10200
EN	-10201
देख	-10202
सात	-10203
थरों	-10204
सूरत	-10205
▁टूल	-10206
▁डाइ	-10207
▁ऑंखों	-10208
▁पर्दा	-10209
▁चाहेगा	-10210
▁वाशिंग	-10211
▁क्रिस्ट	-10212
▁प्रक्रम	-10213
▁एक्सटेंशन	-10214
▁पद्धतियों	-10215
▁द्वारकानाथ	-10216
▁मार्गदर्शक	-10217
erm	-10218
राहट	-10219
▁रिफ	-10220
▁आन्त	-10221
▁इण्ड	-10222
▁रत्न	-10223
▁सभाओं	-10224
▁उद्धरण	-10225
▁संख़्या	-10226
▁अभिप्राय	-10227
▁शांतिपूर्ण	-10228
ापे	-10229
▁GN	-10230
▁उखा	-10231
▁हँस	-10232
▁क्षे	-10233
▁पुरी	-10234
▁यकीन	-10235
▁विदा	-10236
व्यस्त	-10237
▁2015)	-10238
▁चिल्ला	-10239
▁दिखाएं	-10240
▁राज़्य	-10241
▁आदर्शों	-10242
▁प्रतिवेदन	-10243
▁प्लास्टिक	-10244
किर	-10245
ष्प	-10246
फ़्त	-10247
ोग्य	-10248
▁अपी	-10249
▁धर्	-10250
पुस्त	-10251
▁ढूँढ	-10252
▁पौरा	-10253
▁वाकई	-10254
▁ग्रेड	-10255
▁भागवत	-10256
▁लेखों	-10257
▁पहचाना	-10258
▁विलियम	-10259
प्राप्ति	-10260
▁रखनेवाला	-10261
▁आत्मविश्वास	-10262
ंगर	-10263
फ़े	-10264
्टे	-10265
पेयी	-10266
भावी	-10267
▁भीम	-10268
विधिक	-10269
▁ताना	-10270
▁सजीव	-10271
▁अन्तः	-10272
▁चिन्त	-10273
▁जॉर्ज	-10274
तकोत्तर	-10275
▁प्रामाण	-10276
▁फाउंडेशन	-10277
MAIL	-10278
न्दन	-10279
▁कसौ	-10280
▁छीन	-10281
▁मरे	-10282
ज्ञानी	-10283
▁अनुयाय	-10284
▁नौसेना	-10285
▁प्रवास	-10286
▁फैलाने	-10287
▁अस्पष्ट	-10288
▁सुभाषबाबू	-10289
▁ः	-10290
ton	-10291
ज़ो	-10292
▁सऋ	-10293
मूसा	-10294
मेरा	-10295
▁186	-10296
▁आयाम	-10297
▁मसीह	-10298
▁लोगे	-10299
▁भूकंप	-10300
▁चेन्नई	-10301
▁जुड़ने	-10302
▁गंभीरता	-10303
▁विधायिका	-10304
ोंग	-10305
गरीय	-10306
णाचल	-10307
देखो	-10308
र्ची	-10309
ताजों	-10310
मण्डल	-10311
शनूदी	-10312
▁भण्ड	-10313
▁हरकत	-10314
क्सीजन	-10315
▁विकार	-10316
▁श्वसन	-10317
जहन्नुम	-10318
▁कुशादा	-10319
▁कौंसिल	-10320
▁नस्लों	-10321
▁मुअय्य	-10322
▁निरूपित	-10323
▁निर्वहन	-10324
▁नाफ़रमानी	-10325
▁०	-10326
यही	-10327
इतना	-10328
▁आवे	-10329
▁बाय	-10330
▁मेर	-10331
▁अमीर	-10332
▁व्‍य	-10333
▁ऊतकों	-10334
▁शिष्य	-10335
डब्ल्यू	-10336
▁लड़कों	-10337
nc	-10338
फीति	-10339
ित्ति	-10340
▁माया	-10341
▁वयस्क	-10342
▁सामंज	-10343
्यात्मक	-10344
▁प्रेमी	-10345
▁बादलों	-10346
▁दिनांकित	-10347
▁हथियारों	-10348
ूबी	-10349
▁काँ	-10350
▁जीने	-10351
▁मृदा	-10352
▁सफ़र	-10353
▁जयपुर	-10354
▁रस्सी	-10355
▁सौन्द	-10356
▁हिजरत	-10357
▁पेड़ों	-10358
▁दर्शाती	-10359
▁निःशुल्क	-10360
ype	-10361
लेन	-10362
सैन	-10363
▁65	-10364
▁उलझ	-10365
▁पवन	-10366
पृष्ठ	-10367
बूझकर	-10368
▁तिरु	-10369
▁पोषक	-10370
▁अस्थिर	-10371
▁इसराइल	-10372
▁आदिवासी	-10373
▁प्रबंधित	-10374
3)	-10375
थ्य	-10376
ब्त	-10377
ादन	-10378
ैंट	-10379
▁1)	-10380
ोपाल	-10381
▁कालि	-10382
▁चलेगा	-10383
जनात्मक	-10384
▁उत्सुक	-10385
▁उपरांत	-10386
▁इंस्टीट	-10387
▁चुंबकीय	-10388
▁रेखांकित	-10389
▁विवेकानंद	-10390
कक	-10391
देह	-10392
पाए	-10393
▁अन्ध	-10394
▁दिली	-10395
▁फ्रा	-10396
▁समेत	-10397
▁इंगित	-10398
▁खेलने	-10399
▁करतूतों	-10400
▁निकालकर	-10401
▁हेक्टेयर	-10402
ust	-10403
भवन	-10404
्रल	-10405
▁लंब	-10406
दायगी	-10407
▁सौदे	-10408
▁हकीम	-10409
स्पष्ट	-10410
▁उत्थान	-10411
▁ताजमहल	-10412
▁पॉलिसी	-10413
▁बुलन्द	-10414
▁वाजपेयी	-10415
▁सौहार्द	-10416
▁गुणसूत्र	-10417
▁पांडुलिप	-10418
cri	-10419
▁38	-10420
▁ढ़	-10421
ज़िम	-10422
पड़े	-10423
▁जन्	-10424
▁लूट	-10425
▁सीट	-10426
▁गाने	-10427
▁खंडों	-10428
▁दूंगा	-10429
▁मैसूर	-10430
▁वायदे	-10431
प्ताहिक	-10432
▁मुख़्य	-10433
▁अपरिचित	-10434
▁कृतियों	-10435
एंगे	-10436
▁यूं	-10437
▁1987	-10438
▁भेड़	-10439
हिन्दी	-10440
▁जिज्ञ	-10441
▁नजदीक	-10442
▁पैमान	-10443
▁ललिता	-10444
▁अभिकरण	-10445
▁पंचायत	-10446
▁मलयालम	-10447
▁ग्रंथों	-10448
▁शोकाकुल	-10449
▁उत्पादित	-10450
eg	-10451
हू	-10452
म्‍	-10453
षाण	-10454
▁पग	-10455
उनको	-10456
ूँकि	-10457
▁मोर	-10458
▁साठ	-10459
ुपयोग	-10460
वर्तित	-10461
▁एक्सप	-10462
ब्दियों	-10463
▁इकट्ठे	-10464
▁जैसाकि	-10465
▁संस्थापक	-10466
▁श्रेष्ठता	-10467
किक	-10468
डीओ	-10469
जारी	-10470
म्बई	-10471
ैरात	-10472
▁ऋषि	-10473
▁मजा	-10474
▁मर्	-10475
.2017	-10476
▁आईपी	-10477
▁झोंक	-10478
▁दोहरी	-10479
▁अश्लील	-10480
▁दिलाया	-10481
▁द्रव्य	-10482
▁पुस्‍त	-10483
▁साँचाः	-10484
परिवर्तन	-10485
▁आमंत्रण	-10486
▁तकनीकों	-10487
2,	-10488
’,	-10489
निश	-10490
▁नस	-10491
बरील	-10492
▁वेग	-10493
बिनेट	-10494
▁पढ़े	-10495
▁मेहरा	-10496
▁करवाने	-10497
▁छवियों	-10498
▁तीव्रता	-10499
▁शत्रुओं	-10500
▁निमंत्रण	-10501
enericName	-10502
▁सम्बन्धों	-10503
▁सांप्रदायिक	-10504
▁Constellation	-10505
EA	-10506
ठों	-10507
ाणु	-10508
▁ओल	-10509
▁नह	-10510
वाइस	-10511
▁मोल	-10512
▁लॉक	-10513
▁इटली	-10514
▁गर्भव	-10515
▁जमींद	-10516
▁बुतों	-10517
▁विकेट	-10518
▁हवाले	-10519
▁अलार्म	-10520
▁करवाया	-10521
▁ग़ुलाम	-10522
▁चुपचाप	-10523
▁बुलाते	-10524
▁छत्तीसगढ़	-10525
▁अनुयायियों	-10526
▁प्रारम्भिक	-10527
tic	-10528
▁लक	-10529
ट्टे	-10530
▁भोज	-10531
चित्य	-10532
▁1997	-10533
▁मृतक	-10534
▁रिहा	-10535
वर्षीय	-10536
▁मारते	-10537
▁सीनों	-10538
▁जन्मदिन	-10539
▁जिन्नों	-10540
▁कारस्तान	-10541
▁रेगिस्तान	-10542
▁पर्यवेक्षण	-10543
▁स्थानांतरण	-10544
गोश	-10545
जरी	-10546
टने	-10547
शीन	-10548
दरते	-10549
▁घोर	-10550
▁सघन	-10551
▁रूजू	-10552
▁सपने	-10553
क्षेपण	-10554
▁लंबित	-10555
▁मशीनों	-10556
▁दर्शकों	-10557
▁मौजिज़ा	-10558
▁प्रसारित	-10559
▁अनुपस्थित	-10560
▁ख़ुशख़बरी	-10561
▁फरमाबरदार	-10562
IT	-10563
निन	-10564
ैनी	-10565
▁08	-10566
▁on	-10567
इसके	-10568
ज्जुब	-10569
▁कतार	-10570
▁चुनी	-10571
क्षकों	-10572
▁अंतरा	-10573
▁सकताः	-10574
▁बुनियाद	-10575
▁स्वयंसे	-10576
▁अपमानजनक	-10577
▁एसोसिएशन	-10578
▁चन्द्रमा	-10579
?-	-10580
पत्	-10581
श्क	-10582
▁मनी	-10583
color	-10584
▁तनिक	-10585
▁बायो	-10586
▁ब्ला	-10587
▁भुजा	-10588
dition	-10589
▁अनन्य	-10590
▁आभासी	-10591
▁एहसास	-10592
▁क्रूर	-10593
▁समूचे	-10594
▁अनुज्ञ	-10595
▁अमान्य	-10596
▁सेकेंड	-10597
▁अक्षरों	-10598
▁पर्वतीय	-10599
▁विवादों	-10600
▁पहुँचाने	-10601
▁आकांक्षाओं	-10602
▁स्नातकोत्तर	-10603
.6	-10604
एओ	-10605
ंदे	-10606
द्घ	-10607
केशन	-10608
▁पडा	-10609
गुनाह	-10610
▁उठते	-10611
▁निका	-10612
▁अभयार	-10613
▁बलराम	-10614
▁लौटाए	-10615
▁कारकों	-10616
▁वर्ल्ड	-10617
▁नियोजित	-10618
▁पौराणिक	-10619
▁अहमदाबाद	-10620
48	-10621
थ्म	-10622
बिर	-10623
िडी	-10624
गणना	-10625
ज्जत	-10626
▁उठी	-10627
▁गुल	-10628
▁जूट	-10629
▁1996	-10630
▁ज़ूम	-10631
▁दाना	-10632
▁खेलों	-10633
▁वायुम	-10634
▁सेवाएँ	-10635
▁तत्पश्च	-10636
▁व्याप्त	-10637
▁रहनेवाले	-10638
▁वित्तपोषण	-10639
▁रिए	-10640
▁बेगम	-10641
पक्षीय	-10642
र्निया	-10643
▁छुड़ा	-10644
▁परिपथ	-10645
▁प्रया	-10646
▁ब्लॉक	-10647
▁निकलती	-10648
▁शॉर्टकट	-10649
▁स्तंभों	-10650
▁पंक्तियों	-10651
उदी	-10652
गिन	-10653
पाठ	-10654
▁1/	-10655
▁जक	-10656
अधिक	-10657
धियां	-10658
▁आर्ट	-10659
▁बैंड	-10660
▁मारो	-10661
▁साइन	-10662
प्रकाश	-10663
▁गुच्छ	-10664
▁मायने	-10665
▁व्यायाम	-10666
▁शब्दकोश	-10667
▁राधाकृष्णन	-10668
▁55	-10669
पीछे	-10670
रणीय	-10671
▁BAR	-10672
▁किर	-10673
▁घिर	-10674
▁छान	-10675
▁मेट	-10676
दाश्त	-10677
▁क्षय	-10678
▁पद्म	-10679
▁सूअर	-10680
▁गोपाल	-10681
▁घटकों	-10682
▁जुल्म	-10683
▁पीड़क	-10684
▁साधना	-10685
▁आज्ञाप	-10686
▁क्षेत्रक	-10687
▁नियोक्ता	-10688
▁मध्यवर्ती	-10689
ID	-10690
आय	-10691
णसी	-10692
फेस	-10693
गंगा	-10694
पकों	-10695
संभव	-10696
▁पठन	-10697
▁रेत	-10698
▁सुप	-10699
त्थान	-10700
त्विक	-10701
ान्ति	-10702
▁रावण	-10703
▁स्का	-10704
ष्णुता	-10705
▁क़बूल	-10706
▁ख़त्म	-10707
▁बम्बई	-10708
▁विजेट	-10709
▁वेस्ट	-10710
ेक्ट्री	-10711
▁निगमित	-10712
▁पैरामीटर	-10713
▁बुराइयों	-10714
कह	-10715
ore	-10716
च्चे	-10717
▁बिर	-10718
ियमित	-10719
ुमारी	-10720
▁रसोई	-10721
▁आंखें	-10722
▁चित्त	-10723
▁तेज़ी	-10724
▁नम्बर	-10725
▁दोस्ती	-10726
▁भौतिकी	-10727
▁मुर्दा	-10728
▁रखेंगे	-10729
▁इन्साफ़	-10730
▁गर्भवती	-10731
▁साप्ताहिक	-10732
▁मजिस्ट्रेट	-10733
aol	-10734
वाड़	-10735
विटी	-10736
व्यय	-10737
शैली	-10738
▁निब	-10739
▁बूट	-10740
▁सहि	-10741
लिस्ट	-10742
▁क़दर	-10743
▁चमकी	-10744
▁ताली	-10745
▁वर्क	-10746
▁चिंतित	-10747
▁ज़रुरत	-10748
▁निवेशक	-10749
▁पकड़ने	-10750
▁भाषाएँ	-10751
▁अधिनिर्ण	-10752
▁पुरातत्व	-10753
▁raviratlami	-10754
उसे	-10755
बना	-10756
वंत	-10757
▁वशी	-10758
▁ड्यू	-10759
▁बनती	-10760
▁मेनन	-10761
▁वाजे	-10762
कश्मीर	-10763
वीक्षा	-10764
▁रोकना	-10765
▁नैतिकता	-10766
ख़ा	-10767
दिल	-10768
क्चर	-10769
▁दूत	-10770
▁पैन	-10771
▁फोट	-10772
▁यान	-10773
▁लाप	-10774
अर्था	-10775
परिषद	-10776
▁क़िब	-10777
▁उत्पी	-10778
▁बुलाए	-10779
▁कानपुर	-10780
▁ड्राफ्ट	-10781
▁ब्राह्म	-10782
▁निर्देशक	-10783
▁सामंजस्य	-10784
ुरू	-10785
▁3,	-10786
▁कंक	-10787
▁बें	-10788
▁रहन	-10789
ज़मीन	-10790
र्मित	-10791
▁अज़ी	-10792
▁घिरा	-10793
▁बीते	-10794
▁बैठी	-10795
▁बजाया	-10796
▁अंडमान	-10797
▁परिमाण	-10798
▁महाराज	-10799
▁मुद्रक	-10800
▁सुश्री	-10801
▁सौन्दर्य	-10802
एसएल	-10803
बिया	-10804
▁इना	-10805
▁डेल	-10806
▁पित	-10807
▁बकर	-10808
योजना	-10809
ेशनों	-10810
▁सुखद	-10811
▁दर्शक	-10812
▁ब्रेक	-10813
▁राजपू	-10814
▁व्यंग	-10815
▁नोकिया	-10816
▁लार्वा	-10817
▁पिक्सेल	-10818
▁सार्वभौमिक	-10819
ायन	-10820
▁सँ	-10821
क्ष्	-10822
चेरी	-10823
सिले	-10824
▁(6)	-10825
▁मणी	-10826
▁कटाई	-10827
▁कृषक	-10828
▁गाथा	-10829
▁दायर	-10830
▁मोटी	-10831
▁हुईं	-10832
▁उपहास	-10833
▁जमाअत	-10834
▁निपटा	-10835
▁फरमाई	-10836
▁बरहक़	-10837
▁रौशनी	-10838
▁यूनानी	-10839
▁उपरोक्त	-10840
▁नेअमतों	-10841
▁माबूदों	-10842
▁निगेहबान	-10843
▁पीढ़ियों	-10844
▁होनेवाली	-10845
▁वाक़िफ़कार	-10846
▁हस्ताक्षरित	-10847
1}	-10848
ser	-10849
ंधे	-10850
बीस	-10851
ुनि	-10852
▁शत	-10853
ग्रे	-10854
चक्र	-10855
टीपी	-10856
कुरान	-10857
▁कपास	-10858
▁ख़ान	-10859
▁चंडी	-10860
▁वल्ल	-10861
▁सेवक	-10862
▁ख़याल	-10863
▁बड़ाई	-10864
▁विराम	-10865
▁सीरिया	-10866
▁स्लाइड	-10867
चिकित्सा	-10868
MS	-10869
यद	-10870
ंचन	-10871
ज़्	-10872
▁LD	-10873
ecast	-10874
rance	-10875
▁1986	-10876
▁फर्क	-10877
▁बाजू	-10878
रेटिंग	-10879
▁जिक्र	-10880
▁वेदों	-10881
▁उपासना	-10882
▁ग्यारह	-10883
▁पड़ेगी	-10884
▁बागवानी	-10885
▁स्त्रोत	-10886
▁forecast	-10887
भला	-10888
crip	-10889
बंदी	-10890
स्टन	-10891
ृहीत	-10892
ैण्ड	-10893
▁इतर	-10894
▁बाघ	-10895
▁मौन	-10896
▁असुर	-10897
▁इतरा	-10898
▁ईसवी	-10899
▁सुलभ	-10900
▁शुभार	-10901
▁सहेजा	-10902
▁आयातित	-10903
▁जंगलों	-10904
▁निर्या	-10905
▁वाक्या	-10906
▁पृष्ठों	-10907
▁लक्ष्मण	-10908
▁तात्पर्य	-10909
▁विकल्पों	-10910
▁याचिकाकर्ता	-10911
.01	-10912
▁43	-10913
श्कर	-10914
▁ग़म	-10915
▁ग्ल	-10916
▁घंटा	-10917
▁झूठी	-10918
▁पाकर	-10919
▁फतेह	-10920
▁ब्रॉ	-10921
▁रूसी	-10922
▁कोयले	-10923
▁घुमाव	-10924
▁पंक्त	-10925
▁विधायी	-10926
▁अनियमित	-10927
""	-10928
har	-10929
jut	-10930
बात	-10931
ालू	-10932
▁47	-10933
▁सुस	-10934
▁बनें	-10935
▁मंदी	-10936
▁मदों	-10937
▁शंका	-10938
▁निदेशकों	-10939
▁प्रीमियम	-10940
▁उपाध्यक्ष	-10941
21	-10942
24	-10943
xx	-10944
-10	-10945
▁गे	-10946
जोरी	-10947
▁सरो	-10948
खोलकर	-10949
निवार	-10950
▁लेनी	-10951
▁दिलाने	-10952
▁दिवसीय	-10953
▁प्रवर्	-10954
▁समुच्चय	-10955
▁स्क्रॉल	-10956
▁परिवर्धित	-10957
▁सिफारिशों	-10958
ञ्	-10959
ग्व	-10960
ड्स	-10961
बरे	-10962
▁ओज	-10963
▁खाए	-10964
▁खार	-10965
विश्व	-10966
ियाना	-10967
▁जीते	-10968
▁पढ़ो	-10969
▁पाएँ	-10970
▁युवक	-10971
▁सूखा	-10972
रीक्षण	-10973
ष्‍ट्र	-10974
▁छोड़ो	-10975
▁संस्कार	-10976
▁सरकारें	-10977
▁)	-10978
बड़	-10979
युग	-10980
मेरी	-10981
▁सफर	-10982
ोजगार	-10983
्रपान	-10984
▁अर्श	-10985
▁दौलत	-10986
▁समतल	-10987
▁हावी	-10988
▁अकारथ	-10989
▁पत्तन	-10990
▁हास्य	-10991
वर्सिटी	-10992
▁नियोजक	-10993
▁बदकारी	-10994
▁मज़बूती	-10995
कोट	-10996
ीयत	-10997
ढ़ने	-10998
यहाँ	-10999
वरों	-11000
▁1980	-11001
▁1993	-11002
▁पेंट	-11003
▁अलिफ़	-11004
▁कसौटी	-11005
▁नगरों	-11006
▁बचाया	-11007
▁युग्म	-11008
▁सरलता	-11009
▁Google	-11010
▁उद्धृत	-11011
▁जागरूक	-11012
▁बहुदेव	-11013
▁बिस्तर	-11014
▁हड़ताल	-11015
▁कलात्मक	-11016
▁प्रत्यु	-11017
▁सैकड़ों	-11018
▁उपक्रमों	-11019
▁महाकाव्य	-11020
▁नियन्त्रण	-11021
▁आस्ट्रेलिया	-11022
तव	-11023
मनी	-11024
▁नफ	-11025
juta	-11026
नीमत	-11027
▁ऊंट	-11028
▁झार	-11029
▁तोह	-11030
▁पॉल	-11031
▁कोटि	-11032
▁परिल	-11033
▁पेपर	-11034
▁मापन	-11035
▁सदृश	-11036
उन्हें	-11037
▁मूलतः	-11038
▁डब्ल्यू	-11039
▁नरेंद्र	-11040
निर्धारित	-11041
▁प्रभावों	-11042
▁भागीदारों	-11043
ंजे	-11044
प्प	-11045
ादर	-11046
▁दफा	-11047
gnome	-11048
▁काशी	-11049
▁ट्री	-11050
▁दाएँ	-11051
▁वस्त	-11052
▁सीने	-11053
▁पड़ना	-11054
▁मारता	-11055
▁रक्षक	-11056
▁मेडिकल	-11057
▁कृत्यों	-11058
▁क्लाइंट	-11059
▁सुंदरता	-11060
▁आधारशिला	-11061
▁त्रिपुरा	-11062
im	-11063
-12	-11064
ंजर	-11065
ग़ल	-11066
▁टल	-11067
▁२५	-11068
मानत	-11069
विजन	-11070
hould	-11071
ितानी	-11072
▁चार्	-11073
▁चूँकि	-11074
▁मुम्ब	-11075
▁अपनाना	-11076
▁औचित्य	-11077
▁प्रेरक	-11078
▁कैबिनेट	-11079
▁निकोबार	-11080
ug	-11081
¤¥	-11082
.03	-11083
काबा	-11084
पीजी	-11085
पुरा	-11086
रापन	-11087
ियॉँ	-11088
▁आयत	-11089
▁जोश	-11090
▁टेक	-11091
▁फरी	-11092
▁सुम	-11093
▁म्या	-11094
गुज़ार	-11095
▁बछड़े	-11096
▁उन्नीस	-11097
▁भंडारित	-11098
▁वाराणसी	-11099
▁सद्भावना	-11100
▁समितियां	-11101
▁क्रियाकलापों	-11102
ck	-11103
ज्र	-11104
▁जुट	-11105
▁आभार	-11106
▁ऋणों	-11107
▁निया	-11108
▁2019)	-11109
▁अकारत	-11110
▁टेक्न	-11111
▁पुष्ट	-11112
▁मुद्दत	-11113
▁तुम्हीं	-11114
▁द्वीपों	-11115
▁संग्रहित	-11116
▁व्यापारियों	-11117
क़ौ	-11118
▁ओह	-11119
त्‍व	-11120
िकोड	-11121
▁रवै	-11122
▁संभ	-11123
▁साख	-11124
ालैंड	-11125
▁1988	-11126
▁कपटा	-11127
▁वबाल	-11128
▁मख़लू	-11129
▁वाजेए	-11130
▁अखंडता	-11131
▁शास्ति	-11132
▁किस्मों	-11133
▁वृक्षों	-11134
▁इख्तेयार	-11135
▁ख़ुशनूदी	-11136
▁परिपक्वता	-11137
पश	-11138
एसआई	-11139
एससी	-11140
न्सी	-11141
ष्णा	-11142
ोगिक	-11143
▁तैर	-11144
गाकार	-11145
त्तूर	-11146
विन्द	-11147
▁जीता	-11148
▁तिलक	-11149
▁बंगल	-11150
▁सुने	-11151
▁बैठते	-11152
▁समझती	-11153
▁सेटअप	-11154
▁हफ्ते	-11155
▁अंतरिम	-11156
▁निकासी	-11157
▁पुत्री	-11158
▁पूंजीगत	-11159
▁स्वार्थ	-11160
▁डिरेक्ट्री	-11161
विच	-11162
ुवा	-11163
▁रम	-11164
ुद्र	-11165
▁१९७	-11166
EMAIL	-11167
▁वाहक	-11168
▁सुलह	-11169
संशोधन	-11170
▁जरिये	-11171
▁भित्ति	-11172
▁लक्षित	-11173
▁उत्प्रे	-11174
▁लाभकारी	-11175
▁इंस्टीट्यूट	-11176
डम	-11177
001	-11178
फेर	-11179
▁यश	-11180
ject	-11181
स्की	-11182
▁(23	-11183
▁अड़	-11184
विकास	-11185
▁असीम	-11186
▁दुष्	-11187
▁वालो	-11188
▁स्की	-11189
▁जीतने	-11190
▁मानकर	-11191
▁हटाया	-11192
▁Anjuta	-11193
▁महत्वा	-11194
▁मेजबान	-11195
▁लैंगिक	-11196
▁काश्मीर	-11197
▁पहुँचती	-11198
▁अभयारण्य	-11199
▁प्रतिरूप	-11200
▁वाशिंगटन	-11201
▁विजेताओं	-11202
▁विषयवस्तु	-11203
ry	-11204
.07	-11205
कोण	-11206
चें	-11207
ोगी	-11208
▁डू	-11209
▁दब	-11210
ऊंगा	-11211
हाउस	-11212
्याम	-11213
केतिक	-11214
दक्षि	-11215
हार्य	-11216
▁लटका	-11217
▁आएँगे	-11218
▁जानें	-11219
▁दीवान	-11220
▁बहनों	-11221
▁एकाग्र	-11222
▁मापदंड	-11223
▁ताज्जुब	-11224
▁सापेक्ष	-11225
▁उद्यमिता	-11226
▁अब्दुल्ला	-11227
▁पहाड़ियों	-11228
▁मंत्रिमंडल	-11229
१०	-11230
.06	-11231
अली	-11232
जीत	-11233
लब्ध	-11234
▁थाः	-11235
▁फिन	-11236
▁यों	-11237
world	-11238
वार्ष	-11239
▁LDAP	-11240
▁अफसर	-11241
▁काबा	-11242
▁चलें	-11243
▁कन्या	-11244
▁गुंजा	-11245
▁नोड्स	-11246
▁संतति	-11247
कर्त्ता	-11248
▁असंख्य	-11249
▁ऑफलाइन	-11250
▁मणीलाल	-11251
▁सिलसिले	-11252
▁ब्रितानी	-11253
असल	-11254
उंट	-11255
▁इंद	-11256
▁एकक	-11257
▁पदा	-11258
▁सिम	-11259
▁कराते	-11260
▁रोकता	-11261
वर्तनीय	-11262
▁देखरेख	-11263
▁माइक्र	-11264
▁अरुणाचल	-11265
▁अवधारित	-11266
▁नामांकन	-11267
▁पत्थरों	-11268
▁संगोष्ठी	-11269
▁संप्रदाय	-11270
▁कार्यकलाप	-11271
▁शव	-11272
चरित	-11273
चाने	-11274
जवान	-11275
ग्रंथ	-11276
देश्य	-11277
फार्म	-11278
▁(196	-11279
▁1995	-11280
▁अनाव	-11281
▁पैदल	-11282
▁मेला	-11283
▁युसु	-11284
▁अर्जी	-11285
▁बैठकर	-11286
▁लश्कर	-11287
▁विलंब	-11288
▁खाद्या	-11289
▁बढ़िया	-11290
▁संदर्भित	-11291
▁condition	-11292
▁शताब्दियों	-11293
hort	-11294
द्रव	-11295
▁कूद	-11296
▁1990	-11297
▁स्टो	-11298
▁डेविड	-11299
▁निकास	-11300
▁भिक्ष	-11301
▁संबोधन	-11302
▁बेहतरीन	-11303
▁स्ट्रीट	-11304
▁एनकोडिंग	-11305
▁गुनाहगार	-11306
अस	-11307
िलि	-11308
्‍व	-11309
▁39	-11310
▁ओड	-11311
▁साय	-11312
▁हिर	-11313
▁नीला	-11314
▁पूरब	-11315
▁महार	-11316
▁सरोज	-11317
क्रमित	-11318
▁असफलः	-11319
▁पाश्च	-11320
▁रुसवा	-11321
▁सीखना	-11322
▁छोड़ना	-11323
▁परिप्रे	-11324
▁प्रमाणन	-11325
▁देवनागरी	-11326
▁वर्गाकार	-11327
दीप	-11328
▁an	-11329
▁झी	-11330
/201	-11331
rica	-11332
डीआई	-11333
पुरी	-11334
ृष्ट	-11335
▁ऊर्	-11336
▁नाद	-11337
▁रोल	-11338
ाइयों	-11339
▁एनआई	-11340
▁चलाई	-11341
▁शिरा	-11342
▁झुकाव	-11343
▁सिंधी	-11344
▁डिवाइस	-11345
▁बिहारी	-11346
▁देनेवाले	-11347
▁पहुँचाया	-11348
▁हड्डियों	-11349
▁सहयोगियों	-11350
▁प्रतिरक्षा	-11351
CT	-11352
ge	-11353
करों	-11354
ज्जन	-11355
द्वि	-11356
व्यू	-11357
▁आगम	-11358
▁आला	-11359
विदों	-11360
▁दरजे	-11361
▁पद्य	-11362
▁पल्ल	-11363
▁मिलान	-11364
▁फंक्शन	-11365
▁संगणित	-11366
▁क्योंकर	-11367
▁निर्दोष	-11368
▁निदेशालय	-11369
▁उपराष्ट्रपति	-11370
,)	-11371
35	-11372
ोध	-11373
धरी	-11374
▁शह	-11375
▁सत्	-11376
कर्मी	-11377
▁ताकी	-11378
▁दाने	-11379
▁पतली	-11380
▁बिछा	-11381
▁बुर्	-11382
▁रंगीन	-11383
▁सवारी	-11384
▁पैग़ाम	-11385
▁योद्धा	-11386
▁रिसर्च	-11387
▁विद्वत	-11388
द्योगिकी	-11389
▁खुशहाली	-11390
▁विन्यस्त	-11391
▁सब्जियों	-11392
▁भविष्यवाणी	-11393
डक	-11394
-20	-11395
अंग	-11396
छता	-11397
बैक	-11398
िंट	-11399
NAME	-11400
▁अरा	-11401
▁निल	-11402
▁फुल	-11403
▁बहरे	-11404
▁मेटा	-11405
▁सपना	-11406
▁खुदाई	-11407
▁फीसदी	-11408
▁फ्लैग	-11409
▁रियास	-11410
▁समाना	-11411
▁हुसैन	-11412
▁प्रतिभाग	-11413
▁न्यायमूर्ति	-11414
.02	-11415
iss	-11416
गिक	-11417
चों	-11418
ूर्	-11419
ंटिक	-11420
राबत	-11421
पतियों	-11422
ापूर्व	-11423
▁स्वर्	-11424
▁अभिनेता	-11425
▁जिन्नात	-11426
▁पासपोर्ट	-11427
▁सांकेतिक	-11428
▁एल्गोरिथ्म	-11429
.8	-11430
ल्थ	-11431
बूवत	-11432
ृश्य	-11433
▁अकृत	-11434
▁बताई	-11435
▁सउदी	-11436
जहन्नम	-11437
▁क्रिस	-11438
▁लॉन्च	-11439
▁क़राबत	-11440
▁कारीगर	-11441
▁बाग़ात	-11442
▁व्यंजन	-11443
▁व्यतीत	-11444
▁जहन्नुमी	-11445
▁उपन्यासों	-11446
▁सशक्तीकरण	-11447
टाइ	-11448
शंस	-11449
ahoo	-11450
ोल्ट	-11451
▁आईएस	-11452
▁फूँक	-11453
▁बदली	-11454
▁सर्प	-11455
▁उठाते	-11456
▁गिरने	-11457
▁पच्ची	-11458
▁बैठें	-11459
▁विघटन	-11460
▁सिंगा	-11461
▁उन्मुख	-11462
▁अनुपस्थिति	-11463
ंझ	-11464
IME	-11465
ong	-11466
टुक	-11467
निधि	-11468
▁आति	-11469
▁वॉल	-11470
▁बाईं	-11471
▁संपी	-11472
▁इलाके	-11473
▁तुच्छ	-11474
▁तुलसी	-11475
▁विकृत	-11476
▁श्रोत	-11477
▁श्वास	-11478
▁स्पेन	-11479
▁तालमेल	-11480
▁डिज़ाइन	-11481
▁ब्राउज़	-11482
▁आज्ञापालन	-11483
▁साफ्टवेयर	-11484
ोब	-11485
बिन	-11486
मयी	-11487
यकों	-11488
रेशन	-11489
▁दृश	-11490
▁नित	-11491
मक्का	-11492
▁डिबग	-11493
▁क्षेञ	-11494
▁चिन्ता	-11495
▁सलामती	-11496
▁प्रायोजित	-11497
ue	-11498
able	-11499
गीता	-11500
▁अरे	-11501
▁उदर	-11502
▁घने	-11503
▁वरना	-11504
▁अवसाद	-11505
▁उम्दा	-11506
▁तार्क	-11507
▁गुप्ता	-11508
▁संप्रे	-11509
▁अकादमिक	-11510
.4	-11511
ak	-11512
ब्स	-11513
माइ	-11514
यरी	-11515
▁ऊन	-11516
▁आलू	-11517
▁कैन	-11518
▁शाल	-11519
थियों	-11520
ध्याय	-11521
बन्धी	-11522
▁अवरो	-11523
▁खाका	-11524
▁डिजी	-11525
विद्या	-11526
▁अकादे	-11527
▁मालों	-11528
▁हिमनद	-11529
▁अपराधों	-11530
▁उत्तेजित	-11531
▁निर्भरता	-11532
▁विनियमों	-11533
33	-11534
.00	-11535
कुशल	-11536
गांव	-11537
तेरा	-11538
न्हा	-11539
बिले	-11540
हमें	-11541
ाइंट	-11542
▁कैर	-11543
▁घों	-11544
▁तबाह	-11545
▁सभ्य	-11546
▁क़द्र	-11547
▁ख़ौफ़	-11548
▁जायगा	-11549
▁जीवनी	-11550
▁मनाने	-11551
▁मिलें	-11552
▁पुरातन	-11553
प्लिकेशन	-11554
▁संप्रती	-11555
▁प्रभारित	-11556
▁मुताबिक़	-11557
ऐसी	-11558
▁लू	-11559
▁चौक	-11560
▁सैर	-11561
पुत्र	-11562
▁छाती	-11563
▁लगों	-11564
▁सॉफ़	-11565
▁अन्‍य	-11566
▁क्रमिक	-11567
▁समझाया	-11568
▁सीमेंट	-11569
▁कित्तूर	-11570
▁नागरिकता	-11571
▁नवान्वेषी	-11572
▁पुनरावृत्ति	-11573
फि	-11574
.04	-11575
वालो	-11576
▁अमी	-11577
▁नाभ	-11578
▁फीट	-11579
▁लौह	-11580
संहार	-11581
▁1957	-11582
▁बाला	-11583
▁मारी	-11584
▁सूखी	-11585
▁डालकर	-11586
▁तलवार	-11587
▁साम्य	-11588
ापूर्वक	-11589
▁ख्याति	-11590
▁निकलना	-11591
▁निकालता	-11592
▁निकालते	-11593
der	-11594
नोम	-11595
माम	-11596
ालो	-11597
▁जौ	-11598
एसटी	-11599
▁फोर	-11600
▁रुख	-11601
▁इसमा	-11602
▁उठने	-11603
▁एंटी	-11604
▁खाया	-11605
▁पोशा	-11606
▁बांड	-11607
म्परिक	-11608
▁क्रोम	-11609
▁लगाये	-11610
▁करेंगी	-11611
▁नीलामी	-11612
▁पराजित	-11613
▁वृद्धा	-11614
▁सम्मुख	-11615
▁करूणाकर	-11616
▁गुंजाइश	-11617
▁ग्रीष्म	-11618
▁फ़ंक्शन	-11619
▁आस्तियां	-11620
▁स्वादिष्ट	-11621
ber	-11622
सें	-11623
ense	-11624
time	-11625
स्टा	-11626
▁घड़	-11627
▁तौल	-11628
▁मोक	-11629
देशिक	-11630
▁चौदह	-11631
▁परमा	-11632
▁दिखाओ	-11633
▁मरतबा	-11634
▁मानवा	-11635
▁सुप्र	-11636
तापूर्ण	-11637
▁कम्युन	-11638
▁पात्रों	-11639
▁प्रत्युत्तर	-11640
ai	-11641
▁POP	-11642
▁चैट	-11643
▁नेप	-11644
▁मदर	-11645
▁त्यौ	-11646
▁बंधक	-11647
▁बेपर	-11648
▁ब्ले	-11649
▁कब्जे	-11650
▁बनारस	-11651
▁बन्दा	-11652
▁बूढ़े	-11653
▁बैटरी	-11654
▁स्केल	-11655
▁अंधेरे	-11656
▁ख़िलाफ	-11657
▁इकाइयां	-11658
▁कालावधि	-11659
▁चौपायों	-11660
▁अतिमानसिक	-11661
.7	-11662
शै	-11663
▁("	-11664
▁ठान	-11665
▁तलब	-11666
शीर्ष	-11667
ोनिया	-11668
▁अंडा	-11669
▁सूरा	-11670
पीडीएफ	-11671
▁वैद्य	-11672
▁आश्रित	-11673
▁नौजवान	-11674
▁क्रियान्वित	-11675
ंए	-11676
छु	-11677
ूरा	-11678
▁(5	-11679
ख़ते	-11680
▁245	-11681
▁तने	-11682
▁मिश	-11683
▁मैन	-11684
ज़िले	-11685
▁चौथे	-11686
▁ज्वर	-11687
▁ढलान	-11688
▁फोकस	-11689
▁2014)	-11690
▁अवहेल	-11691
▁ग़ज़ब	-11692
▁तौरेत	-11693
▁पेरिस	-11694
▁मुम्बई	-11695
▁समझदार	-11696
▁आन्तरिक	-11697
▁अभिलेखों	-11698
▁प्रतिबंधित	-11699
हण	-11700
ोदय	-11701
▁गॉ	-11702
उनका	-11703
क़ीन	-11704
▁नाच	-11705
ताकार	-11706
मेन्ट	-11707
स्‍तु	-11708
▁क़ौल	-11709
▁पौधा	-11710
ग्राही	-11711
▁क़्या	-11712
▁कारों	-11713
▁केलिए	-11714
▁घंटों	-11715
▁बुखार	-11716
व्यक्ति	-11717
▁ख़राबी	-11718
▁तारीख़	-11719
▁ड्राइवर	-11720
▁पंचवर्षीय	-11721
IC	-11722
av	-11723
ep	-11724
गाव	-11725
भीत	-11726
▁CO	-11727
न्डी	-11728
▁मधु	-11729
ोरिया	-11730
▁ग़ैब	-11731
▁वकाल	-11732
बेहश्त	-11733
ोग्राफ	-11734
▁अपडेट	-11735
▁आवंटन	-11736
▁ईरानी	-11737
▁फरमाए	-11738
▁लुप्त	-11739
▁ग्रंथि	-11740
▁झुठलाए	-11741
▁प्रताप	-11742
कुफ्फ़ार	-11743
▁कामगारों	-11744
▁मुशरिकों	-11745
▁विनियमित	-11746
▁लानेवालों	-11747
बुक	-11748
ालक	-11749
▁हठ	-11750
ेशकश	-11751
▁खोख	-11752
▁तेर	-11753
▁विस	-11754
फॉर्म	-11755
▁आरेख	-11756
▁उपगत	-11757
▁चोटी	-11758
▁नवाब	-11759
▁परमिट	-11760
▁तिमाही	-11761
▁निम्नतर	-11762
▁धूम्रपान	-11763
▁राष्‍ट्र	-11764
राइ	-11765
▁ऐब	-11766
▁थै	-11767
त्था	-11768
निस्	-11769
पैदा	-11770
▁(18	-11771
▁खडे	-11772
▁चाप	-11773
▁पला	-11774
▁1971	-11775
▁अधिर	-11776
▁कंधे	-11777
▁फायर	-11778
▁बर्न	-11779
▁वाजि	-11780
▁इंसान	-11781
▁बायाँ	-11782
▁स्टील	-11783
▁मतदाता	-11784
▁व्यवसा	-11785
▁हनुमान	-11786
▁कार्यवाहियों	-11787
आम	-11788
पस	-11789
-11	-11790
con	-11791
ock	-11792
करे	-11793
बाब	-11794
▁54	-11795
वाहक	-11796
वाहा	-11797
▁टोक	-11798
▁मद्	-11799
▁मोज	-11800
ारायण	-11801
▁अठार	-11802
▁दरें	-11803
▁पीले	-11804
▁बैठो	-11805
▁त्यौहार	-11806
▁पूर्वान	-11807
▁परिष्कृत	-11808
▁मानदंडों	-11809
▁समारोहों	-11810
▁स्वेच्छा	-11811
ताई	-11812
धना	-11813
ध्द	-11814
सीए	-11815
पुरम	-11816
▁आशी	-11817
▁वात	-11818
▁खाकर	-11819
▁लाइट	-11820
▁ख़रीद	-11821
▁गिर्द	-11822
▁पेशकश	-11823
▁भूगोल	-11824
▁रीसेट	-11825
▁घटनाएं	-11826
▁डीपीआई	-11827
▁पाबन्द	-11828
▁अकादेमी	-11829
▁वस्तुएँ	-11830
▁कर्मियों	-11831
▁मान्यताप्राप्त	-11832
hel	-11833
च्य	-11834
जिये	-11835
टर्स	-11836
मस्त	-11837
ात्य	-11838
▁जाँ	-11839
▁शार	-11840
▁1976	-11841
▁वाकि	-11842
▁वासी	-11843
▁अंकुर	-11844
▁काल्प	-11845
▁यमुना	-11846
ोनेशिया	-11847
▁वशीभूत	-11848
▁वामपंथी	-11849
▁सन्दर्भ	-11850
▁समाविष्ट	-11851
▁प्रेमचन्द	-11852
▁श्रीकृष्ण	-11853
▁कार्यकर्ता	-11854
▁उपयोगकर्ताओं	-11855
ईस	-11856
ंशी	-11857
कोड	-11858
डेड	-11859
क्से	-11860
द्दत	-11861
र्वे	-11862
▁पौध	-11863
▁मकर	-11864
बुद्ध	-11865
म्बित	-11866
वाहिक	-11867
▁"{0}	-11868
▁जोशी	-11869
▁खतरों	-11870
▁चूर्ण	-11871
▁अस्त्र	-11872
▁संकलित	-11873
▁अकृतज्ञ	-11874
▁चिड़िया	-11875
▁काल्पनिक	-11876
▁प्रेमचंद	-11877
▁नगरपालिका	-11878
ary	-11879
थिल	-11880
▁एत	-11881
▁छल	-11882
▁कंस	-11883
▁कस्	-11884
▁चंद	-11885
एशिया	-11886
मूल्य	-11887
ल्पित	-11888
▁लकीर	-11889
▁विषम	-11890
▁"{0}"	-11891
▁इनायत	-11892
▁खोलना	-11893
▁श्रव्य	-11894
▁स्नायु	-11895
▁पहुँचाए	-11896
▁मेगावाट	-11897
▁सुसज्जित	-11898
▁कार्मिकों	-11899
▁आतंकवादियों	-11900
9)	-11901
थो	-11902
फन	-11903
सचि	-11904
ादित	-11905
▁गरम	-11906
▁जनन	-11907
▁याक	-11908
▁हेल	-11909
▁(197	-11910
▁ग़लत	-11911
ान्वित	-11912
▁अपनाए	-11913
▁पॉपअप	-11914
▁सांसद	-11915
▁निर्जीव	-11916
▁संदिग्ध	-11917
▁अवस्थाओं	-11918
▁जानेवाली	-11919
▁नाफरमानी	-11920
▁translate	-11921
▁अंतर्वस्तु	-11922
▁अर्थशास्त्र	-11923
▁उत्तराधिकार	-11924
-15	-11925
aoM	-11926
one	-11927
सेफ	-11928
▁51	-11929
▁मठ	-11930
ound	-11931
चुअल	-11932
बड़ा	-11933
र्डर	-11934
▁आमा	-11935
▁इफ़	-11936
िविटी	-11937
▁जंतु	-11938
▁निवल	-11939
▁सतत्	-11940
▁उजागर	-11941
▁खुदरा	-11942
▁आरोग्य	-11943
स्क्रिप्ट	-11944
▁पुस्‍तकालय	-11945
▁सेवानिवृत्ति	-11946
%)	-11947
धु	-11948
ite	-11949
फाय	-11950
सेज	-11951
▁नट	-11952
राग़	-11953
विंग	-11954
▁कुद	-11955
▁तद्	-11956
▁बगी	-11957
▁हेम	-11958
▁चमत्	-11959
▁टेलि	-11960
▁मुवा	-11961
▁लड़ा	-11962
▁सुल्	-11963
स्फीति	-11964
▁संकुल	-11965
प्रतिशत	-11966
▁इक़रार	-11967
ष्‍ट्रीय	-11968
▁अस्वीकृत	-11969
▁सुपुर्दगी	-11970
▁राष्ट्रीयता	-11971
सरे	-11972
ेतन	-11973
ोही	-11974
ौना	-11975
▁बँ	-11976
क़ुर	-11977
▁400	-11978
▁Chr	-11979
▁एंट	-11980
ublic	-11981
▁IMAP	-11982
▁ख़ाक	-11983
▁जर्न	-11984
▁पीएम	-11985
▁भावा	-11986
▁मेवे	-11987
▁मोटा	-11988
▁२००८	-11989
▁देखती	-11990
▁पेशवा	-11991
▁बदलता	-11992
▁भवनों	-11993
▁मंडली	-11994
▁अवधारण	-11995
▁चिकित्	-11996
▁ड्रग्स	-11997
▁रणनीतिक	-11998
▁दुरुपयोग	-11999
▁प्रोफाइल	-12000
▁विधानमंडल	-12001
▁कार्यकर्ताओं	-12002
ati	-12003
सिस	-12004
▁46	-12005
फ़िर	-12006
▁कैप	-12007
▁गुज	-12008
▁बरी	-12009
▁लेब	-12010
खियों	-12011
वाद्य	-12012
▁अभ्य	-12013
▁फर्श	-12014
▁लड़ो	-12015
icense	-12016
▁अंकों	-12017
▁उपनाम	-12018
▁लम्बा	-12019
▁स्तूप	-12020
▁ट्रैकिंग	-12021
ढी	-12022
ङ्ग	-12023
न्ज	-12024
रंग	-12025
▁56	-12026
नाइट	-12027
श्मी	-12028
हायत	-12029
▁अर्ह	-12030
▁जाऊँ	-12031
▁फेरे	-12032
▁लिहा	-12033
▁संसू	-12034
▁उखाड़	-12035
▁ओडिशा	-12036
▁औषधीय	-12037
▁दुर्ग	-12038
▁दुशमन	-12039
▁बदलकर	-12040
▁वकालत	-12041
▁पत्तों	-12042
▁आश्वस्त	-12043
▁मुनासिब	-12044
▁पत्तियों	-12045
▁अनुमतियाँ	-12046
▁पाश्चात्य	-12047
▁प्रायोगिक	-12048
▁प्रयोगशालाओं	-12049
खख	-12050
नेल	-12051
संक	-12052
▁09	-12053
ज़रत	-12054
तापा	-12055
▁आड़	-12056
▁इलै	-12057
▁गों	-12058
▁झाँ	-12059
▁बेन	-12060
धुनिक	-12061
न्नति	-12062
स्कृत	-12063
▁लीटर	-12064
▁हम्द	-12065
▁निस्प	-12066
▁प्रसि	-12067
▁अविश्वास	-12068
▁कार्यशील	-12069
ip	-12070
इस्	-12071
लिन	-12072
आईडी	-12073
▁आत्	-12074
▁बेज	-12075
घोषणा	-12076
ज़रूर	-12077
ज़ीलत	-12078
तौरेत	-12079
देशीय	-12080
▁उष्ण	-12081
▁तरंग	-12082
▁भरना	-12083
▁शुएब	-12084
▁श्ले	-12085
मुक्ति	-12086
▁अगलों	-12087
▁कुष्ठ	-12088
▁दिखने	-12089
स्तियाँ	-12090
▁कर्त्त	-12091
▁रिसालत	-12092
▁अवहेलना	-12093
▁महोत्सव	-12094
▁सब्सिडी	-12095
▁स्ट्रीम	-12096
▁उत्तेजना	-12097
▁वाक्यांश	-12098
▁संक्रामक	-12099
▁स्वर्गीय	-12100
▁होनेवाले	-12101
▁उन्‍होंने	-12102
इए	-12103
859	-12104
अभि	-12105
भोज	-12106
यीं	-12107
डीटी	-12108
ोहित	-12109
▁थोक	-12110
▁नें	-12111
▁स्फ	-12112
चर्या	-12113
▁अस्व	-12114
▁आभास	-12115
▁रूढ़	-12116
▁लिखत	-12117
▁सेतु	-12118
पोरेशन	-12119
श्लेषण	-12120
▁किस्त	-12121
▁खुराक	-12122
▁दावों	-12123
▁रोबोट	-12124
त्तियां	-12125
▁अरविंद	-12126
▁खिड़की	-12127
▁वर्षीय	-12128
▁यूनिकोड	-12129
▁विशिष्टता	-12130
नरी	-12131
ोला	-12132
▁३०	-12133
कथित	-12134
र्तन	-12135
▁अयो	-12136
▁गौण	-12137
▁सवे	-12138
ंसीसी	-12139
समन्व	-12140
िब्यू	-12141
▁अभूत	-12142
▁चौथी	-12143
▁ठंडा	-12144
▁वीणा	-12145
बुद्धि	-12146
▁चलाता	-12147
▁भोपाल	-12148
▁खूबसूरत	-12149
▁पात्रता	-12150
▁प्रशंसनीय	-12151
▁प्रतिष्ठान	-12152
if	-12153
est	-12154
▁अछ	-12155
सलाम	-12156
▁हेर	-12157
▁०००	-12158
▁अक्ल	-12159
▁आच्छ	-12160
▁कुकी	-12161
▁बिंब	-12162
▁लौटे	-12163
▁अनुमत	-12164
▁चढ़ाई	-12165
▁चैत्य	-12166
▁नोबेल	-12167
▁राक्ष	-12168
▁शिश्न	-12169
▁उठाएगा	-12170
▁घुटनों	-12171
▁फ़ैसले	-12172
▁सहेजना	-12173
▁कंप्यूट	-12174
▁बुद्धिमान	-12175
▁अनिवार्यतः	-12176
▁परिप्रेक्ष्य	-12177
SS	-12178
नक	-12179
एआर	-12180
न्नी	-12181
▁जना	-12182
▁मित	-12183
ृंगार	-12184
▁गायन	-12185
▁नर्इ	-12186
▁मामल	-12187
▁खरगोश	-12188
▁नाजुक	-12189
▁भयभीत	-12190
▁जुटाने	-12191
▁विफलता	-12192
▁सामग्र	-12193
▁तार्किक	-12194
▁पर्वतों	-12195
▁सिंगापुर	-12196
23	-12197
कोच	-12198
चुप	-12199
बेर	-12200
िले	-12201
▁एर	-12202
ब्लू	-12203
सराय	-12204
▁उपजा	-12205
▁जीना	-12206
▁व्रत	-12207
▁पत्ता	-12208
▁बख़्श	-12209
▁बदलती	-12210
▁वायरस	-12211
सामान्य	-12212
▁कुत्ता	-12213
▁स्वराज	-12214
▁प्रथाओं	-12215
▁बढ़ोतरी	-12216
▁सम्बंधित	-12217
▁परिवीक्षा	-12218
▁प्रोग्रामिंग	-12219
ION	-12220
ode	-12221
बुद	-12222
यानि	-12223
विद्	-12224
स्वा	-12225
▁अवत	-12226
▁खड़	-12227
▁न्य	-12228
▁पिन	-12229
▁मुस	-12230
गुप्त	-12231
▁अष्ट	-12232
▁क्ले	-12233
▁घुड़	-12234
▁चाचा	-12235
▁झुके	-12236
▁बनाम	-12237
▁लोकल	-12238
▁नियति	-12239
▁स्पर्	-12240
▁क्योकि	-12241
▁जनगणना	-12242
▁मिलेंगे	-12243
▁कहानियां	-12244
▁उत्तराखंड	-12245
▁शिष्टमंडल	-12246
.?	-12247
96	-12248
EL	-12249
ुण	-12250
१८	-12251
फिल	-12252
ैमान	-12253
▁खली	-12254
▁वृह	-12255
आयामी	-12256
▁खगोल	-12257
▁तूफान	-12258
▁विनिया	-12259
▁मैदानों	-12260
▁समाजवाद	-12261
▁अंतर्निहित	-12262
ौफ	-12263
कित	-12264
ोलो	-12265
▁ठा	-12266
▁तफ	-12267
▁ग्व	-12268
क्रेट	-12269
बाज़ी	-12270
वश्यक	-12271
▁अम्र	-12272
आधारित	-12273
▁2017)	-12274
▁जातीय	-12275
▁सज्जन	-12276
▁परंतुक	-12277
▁रियायत	-12278
▁प्रोसेस	-12279
▁विलक्षण	-12280
▁शैतानों	-12281
▁संकेतों	-12282
▁देनेवाली	-12283
▁नवीकरणीय	-12284
▁प्रस्थान	-12285
▁प्रक्षेपण	-12286
▁स्वीकारें	-12287
▁सॉफ़्टवेयर	-12288
▁42	-12289
कारक	-12290
कोटा	-12291
क्रे	-12292
▁शीट	-12293
▁सिग	-12294
▁कब्र	-12295
▁निरे	-12296
▁चतुर्	-12297
▁ठहराव	-12298
▁द्रुत	-12299
▁डालेगा	-12300
▁अफ्रीकी	-12301
▁शुभारंभ	-12302
पील	-12303
चनों	-12304
जोरम	-12305
डीपी	-12306
मुक़	-12307
सचिव	-12308
▁सिड	-12309
▁अंचल	-12310
▁पारे	-12311
▁मादक	-12312
▁लीला	-12313
▁सीसी	-12314
जिसमें	-12315
▁अहसास	-12316
▁चमड़े	-12317
▁सेकंड	-12318
कांक्षी	-12319
▁जोड़ता	-12320
▁तोड़ने	-12321
_0	-12322
अभी	-12323
ब्‍	-12324
मिस	-12325
ेली	-12326
▁49	-12327
▁उँ	-12328
▁जज	-12329
नीचर	-12330
मांड	-12331
ॉर्क	-12332
▁जगम	-12333
मावली	-12334
▁1951	-12335
▁इक्व	-12336
▁एंटर	-12337
▁फ़ोन	-12338
▁मार्ट	-12339
▁चुनेंः	-12340
▁प्रचलन	-12341
▁स्कूली	-12342
▁केन्द्री	-12343
▁जुर्माना	-12344
▁चिकित्सीय	-12345
▁पत्रिकाओं	-12346
▁साझीदारों	-12347
खल	-12348
रिश	-12349
▁मथ	-12350
र्दा	-12351
हानि	-12352
▁पदो	-12353
▁बाइ	-12354
▁साद	-12355
चिन्ह	-12356
त्रिक	-12357
मौजूद	-12358
▁1970	-12359
▁ठेके	-12360
▁नरेश	-12361
▁बचना	-12362
▁लाये	-12363
▁षड्य	-12364
▁एकांत	-12365
▁डेयरी	-12366
▁बढावा	-12367
▁मनाही	-12368
▁लेगें	-12369
▁सिन्ध	-12370
▁should	-12371
▁चेष्टा	-12372
▁मन्दिर	-12373
▁अखबारों	-12374
▁सुविधाजनक	-12375
▁अंतर्विष्ट	-12376
▁विश्वव्यापी	-12377
▁साम्राज्यवाद	-12378
39;	-12379
कौन	-12380
ग़ा	-12381
यती	-12382
समी	-12383
ुका	-12384
्रम	-12385
▁खाम	-12386
▁बेश	-12387
▁यहा	-12388
▁सुथ	-12389
▁हाज	-12390
त्रों	-12391
▁1930	-12392
▁1974	-12393
▁1989	-12394
▁इर्द	-12395
▁फिरो	-12396
▁बिठा	-12397
▁रुग्	-12398
▁रोटी	-12399
प्रसार	-12400
▁जेम्स	-12401
▁बेलार	-12402
▁उल्लास	-12403
▁क़ब्रों	-12404
▁इंटरनेशनल	-12405
▁पारम्परिक	-12406
▁सांख्यिकी	-12407
▁संस्कृतियों	-12408
ink	-12409
लाव	-12410
ूवत	-12411
गणित	-12412
मिति	-12413
विरो	-12414
ारसी	-12415
▁एके	-12416
▁बैच	-12417
त्तरी	-12418
धिकरण	-12419
र्वाद	-12420
▁#39;	-12421
▁चौथाई	-12422
▁अलंकृत	-12423
▁आक्षेप	-12424
▁ग़नीमत	-12425
▁मानसून	-12426
▁विरोधा	-12427
▁हक़दार	-12428
▁दर्शाने	-12429
▁पहचानते	-12430
▁व्यक़्ति	-12431
▁समानांतर	-12432
▁पड़ोसियों	-12433
GenericName	-12434
▁प्रतिभागियों	-12435
API	-12436
ure	-12437
पने	-12438
चकों	-12439
दिवस	-12440
फिरत	-12441
सम्प	-12442
ीर्ण	-12443
▁चाइ	-12444
▁हूद	-12445
त्नों	-12446
ुक्री	-12447
▁उकसा	-12448
▁बहाल	-12449
सरतापा	-12450
हरगिज़	-12451
▁आखेरत	-12452
▁कथाओं	-12453
▁कर्सर	-12454
▁जार्ज	-12455
▁बढाने	-12456
▁याकूब	-12457
▁विषयक	-12458
▁प्ररूप	-12459
▁मुखिया	-12460
▁हाशिया	-12461
▁मंज़िले	-12462
▁मुनाफिक़	-12463
▁मुनाफ़िक़	-12464
▁किताबवालों	-12465
्क	-12466
vii	-12467
खनन	-12468
गमूल	-12469
▁दरा	-12470
▁किर्	-12471
▁गनोम	-12472
▁लाठी	-12473
▁उद्गम	-12474
▁खारिज	-12475
▁दशाओं	-12476
▁मिजोरम	-12477
▁यूनिटों	-12478
▁विंडोज़	-12479
▁वैधानिक	-12480
▁असमर्थित	-12481
▁इस्लामिक	-12482
▁ट्रिब्यू	-12483
▁रूपांतरित	-12484
▁अल्पसंख्यक	-12485
▁महाविद्यालय	-12486
SA	-12487
ंबू	-12488
साल	-12489
▁--	-12490
उससे	-12491
पिंग	-12492
▁खाँ	-12493
▁डिफ	-12494
▁नफर	-12495
▁रिच	-12496
.2012	-12497
▁छड़ी	-12498
▁पूंछ	-12499
▁बाते	-12500
▁लगीं	-12501
▁असंगत	-12502
▁तारीफ	-12503
▁नक्शे	-12504
▁माँगा	-12505
▁माणिक	-12506
▁वीर्य	-12507
▁शिविर	-12508
▁सकोगे	-12509
▁सपनों	-12510
▁सुगंध	-12511
▁तीक्ष्	-12512
▁एनआईओएस	-12513
▁कलाकृति	-12514
▁पंचायतों	-12515
▁यांत्रिक	-12516
▁सहिष्णुता	-12517
▁हस्तशिल्प	-12518
▁प्रतिस्थापित	-12519
▁(6	-12520
▁CD	-12521
बारक	-12522
राइड	-12523
▁250	-12524
▁अनवर	-12525
▁कचरे	-12526
▁पिंड	-12527
▁बापू	-12528
शिक्षा	-12529
समन्वय	-12530
स्थायी	-12531
▁आंत्र	-12532
▁गवर्न	-12533
▁घनत्व	-12534
▁जाहिल	-12535
▁पूछना	-12536
▁भागने	-12537
▁लार्ड	-12538
▁अदायगी	-12539
▁आर्द्र	-12540
▁कुत्ते	-12541
▁जोरदार	-12542
▁पालिसी	-12543
▁प्रचंड	-12544
▁फ़ायदा	-12545
▁मेघालय	-12546
▁वाहनों	-12547
▁निवेदित	-12548
▁वर्गमूल	-12549
▁छात्रवृत्ति	-12550
हॉ	-12551
िग	-12552
उदा	-12553
▁8.	-12554
▁ओं	-12555
▁थक	-12556
ovin	-12557
unit	-12558
निष्	-12559
यानी	-12560
ल्हा	-12561
▁अचल	-12562
▁फीड	-12563
▁वरन	-12564
▁शिष	-12565
▁श्ल	-12566
▁अदाल	-12567
▁इनाम	-12568
▁दायी	-12569
▁हिफा	-12570
▁बिगड़	-12571
▁बोलना	-12572
▁डेल्टा	-12573
▁अनुकूलन	-12574
▁प्रायद्वीप	-12575
▁यूनिवर्सिटी	-12576
केश	-12577
चलन	-12578
पड़	-12579
मुक	-12580
वने	-12581
ूसी	-12582
एमसी	-12583
टिया	-12584
दीने	-12585
ान्स	-12586
▁कंज	-12587
▁टोकन	-12588
▁रचित	-12589
▁2013)	-12590
▁कराती	-12591
▁ताकीद	-12592
▁पुण्य	-12593
▁रुपया	-12594
▁हवाओं	-12595
▁अस्थाई	-12596
▁साहसिक	-12597
▁सीमांत	-12598
▁स्वरुप	-12599
तुम्हारा	-12600
▁License	-12601
▁व्यतिक्र	-12602
▁अभूतपूर्व	-12603
अफ	-12604
ide	-12605
पीय	-12606
यूर	-12607
रोग	-12608
▁120	-12609
▁बूझ	-12610
ोलनों	-12611
▁मसले	-12612
france	-12613
▁डायरे	-12614
▁गर्भाव	-12615
▁दाहिनी	-12616
▁मुर्गी	-12617
▁यथासंभव	-12618
▁सुलझाने	-12619
▁लोकप्रियता	-12620
▁प्राधिकारियों	-12621
अव	-12622
मात	-12623
▁03	-12624
▁पण	-12625
फिया	-12626
▁गिड़	-12627
▁टाटा	-12628
ियुक्त	-12629
▁ट्रेन	-12630
▁तुर्क	-12631
▁निचली	-12632
▁समझकर	-12633
▁सेक्स	-12634
त्वर्ती	-12635
▁बाधाओं	-12636
▁लाज़िम	-12637
▁कार्यभार	-12638
▁जिन्होने	-12639
▁चुनौतियां	-12640
ैड	-12641
”,	-12642
वरा	-12643
▁लश	-12644
▁२२	-12645
ंतीय	-12646
ण्डी	-12647
िबंध	-12648
ुकता	-12649
▁गली	-12650
▁गिल	-12651
▁चूर	-12652
▁बान	-12653
आज्ञा	-12654
गिर्द	-12655
नीयता	-12656
ोत्तर	-12657
▁1946	-12658
▁क़ब्	-12659
▁जोकि	-12660
▁दहला	-12661
indows	-12662
ड़ियां	-12663
▁बीजों	-12664
▁डिजीटल	-12665
▁भूमिगत	-12666
▁रिटर्न	-12667
▁सर्किट	-12668
▁कविताएं	-12669
▁वचनबद्ध	-12670
▁कट्टरपंथी	-12671
▁निर्देशांक	-12672
▁पश्चात्वर्ती	-12673
36	-12674
gt	-12675
एनए	-12676
लता	-12677
वृत	-12678
▁64	-12679
इससे	-12680
जन्य	-12681
पद्ध	-12682
शंसा	-12683
सहाय	-12684
ालाल	-12685
▁राग	-12686
▁वोट	-12687
ज़ाबे	-12688
▁अनुभ	-12689
▁कोटा	-12690
▁खोली	-12691
▁गायक	-12692
▁नाशु	-12693
▁भागे	-12694
▁श्लो	-12695
णात्मक	-12696
▁निषेध	-12697
▁फैलाया	-12698
▁विद्यु	-12699
▁विनियामक	-12700
▁सहकारिता	-12701
na	-12702
oft	-12703
घ्न	-12704
मरी	-12705
अपील	-12706
आरटी	-12707
धाना	-12708
▁धरा	-12709
▁फास	-12710
लियां	-12711
▁ऑब्ज	-12712
▁खेला	-12713
▁नफरत	-12714
▁अब्बा	-12715
▁अवक्ष	-12716
▁आजीवन	-12717
▁चौधरी	-12718
▁दबाएँ	-12719
▁विहार	-12720
▁ह्रास	-12721
▁गवाहों	-12722
▁स्थावर	-12723
▁करोड़ों	-12724
▁मार्केट	-12725
▁टेलीविजन	-12726
▁प्रतिद्व	-12727
▁संरचनात्मक	-12728
गं	-12729
णित	-12730
वुड	-12731
िटल	-12732
▁थल	-12733
▁बृ	-12734
▁वश	-12735
here	-12736
ोसिस	-12737
▁कसम	-12738
▁डबल	-12739
istan	-12740
▁1972	-12741
तत्त्व	-12742
म्प्ले	-12743
सन्देह	-12744
▁अभ्या	-12745
▁जमीनी	-12746
▁पक्की	-12747
▁राजीव	-12748
▁बुलाने	-12749
▁महावीर	-12750
▁माँगने	-12751
▁मिटाया	-12752
▁संभालने	-12753
▁नागालैंड	-12754
▁अपरिहार्य	-12755
चय	-12756
रज	-12757
out	-12758
ोधन	-12759
▁04	-12760
करार	-12761
पात्र	-12762
▁ऑफिस	-12763
▁पीते	-12764
▁प्रत	-12765
▁मवेश	-12766
जीरिया	-12767
ष्ट्री	-12768
▁टैक्स	-12769
▁श्रोता	-12770
▁इमारतों	-12771
▁उच्चारण	-12772
▁गोलाकार	-12773
▁चंडीगढ़	-12774
▁रोज़गार	-12775
▁श्लोकों	-12776
▁दुनियावी	-12777
▁विश्वयुद्ध	-12778
▁प्रतिपूर्ति	-12779
OS	-12780
ऐं	-12781
नोट	-12782
स्का	-12783
▁पसी	-12784
▁हीन	-12785
गाड़ी	-12786
फोर्ड	-12787
▁1985	-12788
▁दादी	-12789
▁यकता	-12790
▁सींग	-12791
▁ध्रुव	-12792
▁फील्ड	-12793
▁लंबवत	-12794
▁विक्ष	-12795
▁वैधता	-12796
▁अमृतसर	-12797
▁कुर्सी	-12798
▁जाऊँगा	-12799
▁जोड़कर	-12800
▁ज़िल्लत	-12801
▁ऑपरेटिंग	-12802
▁कोशिकाएं	-12803
▁संतोषजनक	-12804
▁सक्रियता	-12805
▁एप्लिकेशन	-12806
34	-12807
।]	-12808
mat	-12809
बीएस	-12810
वीएस	-12811
िंदा	-12812
▁एपी	-12813
▁गंग	-12814
▁लसी	-12815
आधारी	-12816
महिला	-12817
▁आर्क	-12818
▁पावन	-12819
▁फ़ित	-12820
▁फिल्	-12821
▁मरना	-12822
सियानी	-12823
issions	-12824
▁अदृश्य	-12825
▁कराधान	-12826
▁निकटता	-12827
▁प्रोद्	-12828
▁बर्बाद	-12829
--------	-12830
▁इंटरफेस	-12831
▁बैंककारी	-12832
▁संक्रमित	-12833
▁पाठ्यक्रमों	-12834
इन्	-12835
पाक	-12836
▁4,	-12837
आरसी	-12838
बहार	-12839
▁असु	-12840
▁बाण	-12841
▁मात	-12842
-8859	-12843
▁केबल	-12844
▁क्रे	-12845
▁डुबो	-12846
▁नीले	-12847
▁फेरा	-12848
▁समाई	-12849
▁सहसा	-12850
▁साहा	-12851
पूर्वी	-12852
प्रभाव	-12853
ब्तिला	-12854
▁क़ूवत	-12855
▁जमानत	-12856
▁तुझपर	-12857
▁दुहरा	-12858
▁झारखंड	-12859
▁तत्समय	-12860
▁नृत्‍य	-12861
▁बराबरी	-12862
▁अयोध्या	-12863
▁अध्यादेश	-12864
▁नाशुक्री	-12865
▁प्रबन्धन	-12866
▁सेटिंग्स	-12867
▁प्रातःकाल	-12868
))	-12869
उथ	-12870
गना	-12871
पशप	-12872
मिट	-12873
ेदन	-12874
ोशी	-12875
▁उच	-12876
बाने	-12877
व्रत	-12878
▁कलम	-12879
ग्राह	-12880
बॉक्स	-12881
▁आप्र	-12882
▁कृमि	-12883
▁गपशप	-12884
▁प्रक	-12885
▁रोजे	-12886
▁आवधिक	-12887
▁चार्ज	-12888
▁जमारा	-12889
▁अलंकरण	-12890
▁आईसीटी	-12891
▁पहुंची	-12892
▁कुटुम्ब	-12893
▁भिन्नता	-12894
▁शुरुआती	-12895
26	-12896
89	-12897
EAD	-12898
कवि	-12899
्रह	-12900
देही	-12901
▁अधी	-12902
▁ईश्व	-12903
▁स्लो	-12904
▁हमास	-12905
▁कोर्स	-12906
▁ख्वाब	-12907
▁धाराओं	-12908
▁रहेगें	-12909
▁सुनाते	-12910
▁अनावश्यक	-12911
▁संस्थापन	-12912
int	-12913
झान	-12914
्टन	-12915
▁ex	-12916
ार्ध	-12917
▁ज्य	-12918
▁थाई	-12919
▁यूट	-12920
अच्छी	-12921
हमारा	-12922
▁ईर्ष	-12923
▁कापी	-12924
▁मुकर	-12925
▁शहीद	-12926
▁ख़राब	-12927
▁तैनात	-12928
▁दोहरे	-12929
▁मंगोल	-12930
▁सतर्क	-12931
▁अतिक्र	-12932
▁अनदेखा	-12933
▁जोड़ते	-12934
▁बुलाता	-12935
▁असमानता	-12936
▁दर्शाते	-12937
▁मार्गों	-12938
▁अभिलाभों	-12939
▁आशीर्वाद	-12940
▁बस्तियाँ	-12941
▁विधेयकों	-12942
▁इलेक्ट्रॉनिक्स	-12943
.9	-12944
DU	-12945
-13	-12946
lay	-12947
इंग	-12948
▁आउ	-12949
ण्डे	-12950
फ्ता	-12951
ब्रह	-12952
मंडप	-12953
▁ठंड	-12954
सत्ता	-12955
▁अकड़	-12956
▁कमरा	-12957
▁चालक	-12958
▁डेलि	-12959
▁दुरु	-12960
▁पीना	-12961
▁तालीम	-12962
▁पूछने	-12963
▁भत्ते	-12964
▁मियाद	-12965
▁नामकरण	-12966
▁प्रलेख	-12967
▁बुद्धिम	-12968
▁कुंजीपटल	-12969
▁कॉन्फ्रेंस	-12970
▁रजिस्ट्रीकृत	-12971
7,	-12972
de	-12973
uer	-12974
ंडर	-12975
वाज	-12976
▁साई	-12977
तावास	-12978
विहीन	-12979
▁1949	-12980
▁1960	-12981
▁ऑप्ट	-12982
▁गाइड	-12983
▁चर्म	-12984
▁मुल्	-12985
▁यूएस	-12986
escrip	-12987
▁अकेली	-12988
▁अमिता	-12989
▁काटें	-12990
▁बाधित	-12991
▁वृंदा	-12992
▁आतिथ्य	-12993
▁कमजोरी	-12994
▁ग्रीवा	-12995
▁पच्चीस	-12996
▁बढ़ाते	-12997
▁तथाकथित	-12998
3,	-12999
तिन	-13000
ुम्	-13001
▁एप	-13002
गुना	-13003
पीपी	-13004
ल्पी	-13005
▁चलन	-13006
▁दोग	-13007
रूपता	-13008
▁कशेर	-13009
▁झुंड	-13010
▁तामी	-13011
▁नक्का	-13012
▁पढ़ें	-13013
▁पुनरु	-13014
▁मारना	-13015
निर्मित	-13016
विन्यास	-13017
▁अभिभाव	-13018
▁युसुफ़	-13019
▁हुज्जत	-13020
▁क़ाबिले	-13021
▁प्रशस्त	-13022
▁फर्नीचर	-13023
▁तारामंडल	-13024
▁षड्यंत्र	-13025
▁हड्डियाँ	-13026
▁राज्यपालों	-13027
▁विद्यालयों	-13028
-%	-13029
ake	-13030
धरा	-13031
ायब	-13032
िसा	-13033
▁हॅ	-13034
ख़्स	-13035
▁कटा	-13036
▁ज़े	-13037
कानों	-13038
▁कॉफी	-13039
▁गिरी	-13040
▁टैंक	-13041
▁पर्ण	-13042
टुकड़े	-13043
लांटिक	-13044
▁इन्ते	-13045
▁टकराव	-13046
▁द्वेष	-13047
▁मोड़े	-13048
ोग्राफी	-13049
▁घोड़ों	-13050
▁फ़ोल्ड	-13051
▁निकटवर्ती	-13052
▁न्यूयार्क	-13053
▁प्रस्तुतीकरण	-13054
)?	-13055
आद	-13056
lex	-13057
चढ़	-13058
चाई	-13059
तुर	-13060
बहु	-13061
वना	-13062
▁ऋष	-13063
एमएल	-13064
ड़ें	-13065
करिया	-13066
लीकरण	-13067
ारोपण	-13068
▁HEAD	-13069
▁MAPI	-13070
▁छत्र	-13071
▁पछता	-13072
▁बंदी	-13073
▁मच्छ	-13074
टीएमएल	-13075
▁इबलीस	-13076
▁ऊष्मा	-13077
▁पुश्त	-13078
▁बताये	-13079
▁मक्खी	-13080
▁लॉर्ड	-13081
▁विजयी	-13082
▁समझें	-13083
▁10,000	-13084
▁Chrome	-13085
▁आवंटित	-13086
▁गिड़गि	-13087
▁बनवाया	-13088
▁मुनाफे	-13089
▁बर्निंग	-13090
▁मलेरिया	-13091
▁मनोवैज्ञानिक	-13092
IP	-13093
-07	-13094
rou	-13095
कोल	-13096
ज़ु	-13097
वनी	-13098
ज़ाह	-13099
भाषी	-13100
ुप्त	-13101
▁कतर	-13102
▁साज	-13103
स्राव	-13104
▁बार्	-13105
▁सबने	-13106
▁सम्‍	-13107
▁साम्	-13108
▁चाँदी	-13109
▁छिपाए	-13110
▁दायाँ	-13111
▁सौंपे	-13112
▁नबियों	-13113
▁लगेंगे	-13114
▁विराट्	-13115
▁पहचानने	-13116
▁पहुँचता	-13117
▁उत्कीर्ण	-13118
▁रजिस्ट्र	-13119
▁पुनरीक्षण	-13120
व्	-13121
पता	-13122
▁ev	-13123
▁ढु	-13124
कर्स	-13125
घाती	-13126
जियम	-13127
ालिस	-13128
ार्कट	-13129
▁उठकर	-13130
▁जमाव	-13131
▁अवतरण	-13132
▁उभरते	-13133
▁पोशाक	-13134
▁शख़्स	-13135
▁हिंसक	-13136
▁एक्सेस	-13137
........	-13138
शास्त्री	-13139
▁प्रलेखन	-13140
▁शत्रुता	-13141
▁प्रकोष्ठ	-13142
▁भूतपूर्व	-13143
▁संप्रतीक	-13144
▁क्रियाशील	-13145
▁प्रादेशिक	-13146
ोपै	-13147
कृमि	-13148
▁काठ	-13149
▁चोल	-13150
▁जोध	-13151
▁नफ़	-13152
▁बोर	-13153
▁मों	-13154
तियाँ	-13155
दुनाथ	-13156
विधान	-13157
▁जानो	-13158
▁तरजी	-13159
▁लेगी	-13160
▁चौड़ी	-13161
▁दहकती	-13162
▁पाउंड	-13163
▁बारीक	-13164
▁समाधि	-13165
स्क्रीन	-13166
▁अमूर्त	-13167
▁मेहराब	-13168
▁आयताकार	-13169
▁फ्लैग्स	-13170
▁समामेलन	-13171
▁अनुष्ठान	-13172
▁निवेदिता	-13173
▁सांविधिक	-13174
▁खाद्यान्न	-13175
▁प्रामाणिक	-13176
▁फ्रांसीसी	-13177
▁भावनात्मक	-13178
ुग	-13179
डाई	-13180
वला	-13181
ुंब	-13182
ट्ठी	-13183
तमाला	-13184
त्‍मक	-13185
▁क़ैद	-13186
▁ख़ता	-13187
▁ख़ून	-13188
▁गौतम	-13189
▁मीरा	-13190
▁शिला	-13191
प्रबंध	-13192
▁अवमान	-13193
▁छोड़ी	-13194
▁मुराद	-13195
▁विनोद	-13196
▁गठबंधन	-13197
▁झगड़ने	-13198
▁नाइट्र	-13199
▁पिताजी	-13200
▁माँगते	-13201
▁सहनशील	-13202
▁बेलारूस	-13203
▁एक्सप्रेस	-13204
▁कम्युनिस्ट	-13205
1,	-13206
46	-13207
PRO	-13208
सला	-13209
ेता	-13210
▁05	-13211
▁85	-13212
पालक	-13213
योगी	-13214
्लाई	-13215
▁नर्	-13216
▁मेम	-13217
वर्सन	-13218
ष्टिक	-13219
िकाएं	-13220
▁कच्छ	-13221
▁काबू	-13222
▁स्या	-13223
▁जायज़	-13224
▁नित्य	-13225
▁भाँति	-13226
▁मारकर	-13227
▁वार्म	-13228
▁अहंकार	-13229
▁क्रेता	-13230
▁निहायत	-13231
▁बढ़ाता	-13232
▁मधुमक्	-13233
▁मेहमान	-13234
▁मौलाना	-13235
▁अवक्षयण	-13236
▁अविभक्त	-13237
▁नक्काशी	-13238
▁महादेवी	-13239
▁मेहरअली	-13240
▁सुलैमान	-13241
▁अत्याधिक	-13242
▁उर्वरकों	-13243
escription	-13244
▁मूर्तियां	-13245
ice	-13246
पुन	-13247
२००	-13248
▁झर	-13249
डियम	-13250
प्रस	-13251
▁बेख	-13252
Short	-13253
ution	-13254
दायों	-13255
पमेंट	-13256
म्बरी	-13257
▁1994	-13258
▁जन्न	-13259
▁पीला	-13260
▁रखनी	-13261
▁समया	-13262
वाहाटी	-13263
▁पलटकर	-13264
▁बहुधा	-13265
▁वक़्त	-13266
▁विलेख	-13267
▁वृक्क	-13268
▁फरमाता	-13269
▁मंज़िल	-13270
▁साइकिल	-13271
▁गिरफ्तारी	-13272
▁पड़नेवाले	-13273
▁गर्भावस्था	-13274
ps	-13275
ult	-13276
मेव	-13277
नुअल	-13278
ाम्ब	-13279
▁कॉम	-13280
▁ख़़	-13281
▁मता	-13282
▁यंग	-13283
▁हता	-13284
▁बाली	-13285
ख्तेला	-13286
▁अल्फा	-13287
▁गुनेह	-13288
▁तकिया	-13289
▁पर्दे	-13290
▁पाषाण	-13291
▁लगाएँ	-13292
▁गन्दगी	-13293
▁चिन्तन	-13294
▁निकलकर	-13295
▁लम्बाई	-13296
▁सजावटी	-13297
▁सामरिक	-13298
▁अभिलेखा	-13299
▁इफ़तेरा	-13300
▁ज़करिया	-13301
▁जातियां	-13302
▁परवर्ती	-13303
▁मछलियों	-13304
▁मुअय्यन	-13305
▁व्यंग्य	-13306
▁समझौतों	-13307
▁ईमानवाली	-13308
▁पवित्रता	-13309
▁सम्मिश्र	-13310
▁गुनाहगारों	-13311
ix	-13312
ईद	-13313
आईए	-13314
सुल	-13315
्रय	-13316
▁:-	-13317
▁कं	-13318
हराम	-13319
िलिक	-13320
▁करत	-13321
▁घसी	-13322
र्जित	-13323
▁आलोक	-13324
▁क्षी	-13325
▁गिनी	-13326
▁घेरा	-13327
▁पाचन	-13328
▁बाइट	-13329
▁लगाव	-13330
ैंकिंग	-13331
▁क्लास	-13332
▁निचला	-13333
▁बताती	-13334
▁मकबरा	-13335
▁हिमाल	-13336
▁गुस्से	-13337
▁चेहरों	-13338
▁स्वीडन	-13339
▁टुकड़ों	-13340
▁उदाहरणार्थ	-13341
▁मांसपेशियों	-13342
mb	-13343
बख	-13344
200	-13345
all	-13346
ंती	-13347
फिक	-13348
▁वफ	-13349
▁शू	-13350
एनआर	-13351
किरा	-13352
न्टी	-13353
मोचन	-13354
ूस्त	-13355
▁अणु	-13356
▁कबी	-13357
▁सॉल	-13358
टरिंग	-13359
▁बकरी	-13360
▁शिवा	-13361
स्वच्छ	-13362
▁ग़लती	-13363
▁घटाने	-13364
▁मोक्ष	-13365
▁लिखकर	-13366
▁सैद्ध	-13367
साहित्य	-13368
▁करवाना	-13369
▁जानकार	-13370
▁मुर्दे	-13371
▁कारखाने	-13372
▁नियमावली	-13373
▁प्रयोगों	-13374
▁साम्राज़	-13375
▁प्रोद्भूत	-13376
▁शल्यक्रिया	-13377
ateg	-13378
अंतर	-13379
कम्प	-13380
रोधी	-13381
▁चिं	-13382
▁जोन	-13383
▁धड़	-13384
▁बाई	-13385
परायण	-13386
▁वक्ष	-13387
▁इन्टर	-13388
▁कलाओं	-13389
▁दरअसल	-13390
▁बनेगा	-13391
▁लाएगा	-13392
▁सवेरे	-13393
▁अलमस्त	-13394
▁उत्तरः	-13395
▁महासभा	-13396
▁शिकारी	-13397
▁शिशुओं	-13398
▁गेंदबाज	-13399
▁जबरदस्त	-13400
▁प्राप्य	-13401
▁कॉपीराइट	-13402
▁रामकृष्ण	-13403
▁विभिन्‍न	-13404
▁किरायेदार	-13405
▁प्रतिबन्ध	-13406
▁बहुपक्षीय	-13407
ace	-13408
ant	-13409
वाइ	-13410
हूर	-13411
▁इर	-13412
Serv	-13413
ital	-13414
ंमार	-13415
स्के	-13416
ुकूल	-13417
▁कन्	-13418
▁बुख	-13419
▁१९३	-13420
प्रेम	-13421
▁करुँ	-13422
▁काया	-13423
▁चिट्	-13424
▁हक़ी	-13425
eneral	-13426
केंद्र	-13427
▁अतिशय	-13428
▁जीर्ण	-13429
▁तरजीह	-13430
▁मज़हब	-13431
▁स्‍था	-13432
▁दाहिना	-13433
▁नियामक	-13434
▁मातृभूमि	-13435
▁पर्वतमाला	-13436
▁राष्ट्रवादी	-13437
▁पारिस्थितिकी	-13438
गुम	-13439
पुत	-13440
लूक	-13441
ात्	-13442
▁लह	-13443
ण्डर	-13444
वेली	-13445
▁SSL	-13446
▁एनी	-13447
▁खां	-13448
▁घुम	-13449
▁मुय	-13450
▁शैव	-13451
मैंने	-13452
▁अय्य	-13453
▁सिमु	-13454
क्सिको	-13455
ियंत्र	-13456
▁पारसी	-13457
▁मुझपर	-13458
▁वाजिब	-13459
▁विराज	-13460
▁मांगों	-13461
▁राज्‍य	-13462
▁संज्ञा	-13463
किस्तानी	-13464
▁दुकानों	-13465
▁प्रतिकर	-13466
▁रामलिंग	-13467
▁द्विआधारी	-13468
▁translated	-13469
▁दीर्घकालीन	-13470
▁विश्वासघात	-13471
ख्ता	-13472
हानी	-13473
▁आली	-13474
▁बफर	-13475
तालों	-13476
▁दीपा	-13477
▁मरते	-13478
▁आयातक	-13479
▁एकत्व	-13480
▁गोश्त	-13481
▁मांगी	-13482
▁अप्रति	-13483
▁तात्या	-13484
▁दरवाजा	-13485
▁मुबारक	-13486
▁किस्में	-13487
▁दृश्यों	-13488
▁फिनलैंड	-13489
▁जिज्ञासा	-13490
▁स्थापत्य	-13491
पौ	-13492
ंगत	-13493
▁as	-13494
चेतन	-13495
जेशन	-13496
भाजन	-13497
वहार	-13498
ॉफ्ट	-13499
▁(7)	-13500
▁मूस	-13501
▁सूख	-13502
▁औरंग	-13503
▁डायल	-13504
▁रोमन	-13505
ालियों	-13506
▁अनधिक	-13507
▁कच्चा	-13508
▁खेलते	-13509
▁गिरवी	-13510
▁नवजात	-13511
▁पित्त	-13512
▁महीना	-13513
▁माउंट	-13514
▁असंतोष	-13515
▁रविवार	-13516
▁विकृति	-13517
स्वतंत्र	-13518
▁मक्कारी	-13519
▁रिश्तों	-13520
▁सुनेंगे	-13521
▁हाथियों	-13522
▁गुवाहाटी	-13523
OL	-13524
ear	-13525
ँसा	-13526
टिन	-13527
प्य	-13528
बैठ	-13529
ोत्	-13530
▁In	-13531
त्थे	-13532
वायर	-13533
हाइट	-13534
▁इंट	-13535
▁कोइ	-13536
▁गला	-13537
▁धात	-13538
▁बंट	-13539
▁बाज	-13540
▁रास	-13541
ज़ाने	-13542
लाधार	-13543
▁1952	-13544
▁असम्	-13545
▁नेवि	-13546
▁पौंड	-13547
▁रिली	-13548
▁होली	-13549
अर्थात	-13550
▁इशारा	-13551
▁चुनना	-13552
▁डराता	-13553
▁पट्टा	-13554
▁श्लोक	-13555
▁सख़्त	-13556
▁अशुद्ध	-13557
▁मुमकिन	-13558
▁शासकीय	-13559
महाद्वीप	-13560
▁कड़ियाँ	-13561
▁कैलेंडर	-13562
▁समावेशन	-13563
▁उपलब्धियां	-13564
▁पूर्वानुमान	-13565
वेज	-13566
गोचर	-13567
दिया	-13568
वारे	-13569
हाला	-13570
ाप्र	-13571
ार्ग	-13572
▁खेद	-13573
▁निभ	-13574
▁बुन	-13575
पीसीएल	-13576
▁उन्ही	-13577
▁ज्वार	-13578
▁नाराज	-13579
▁बहाना	-13580
▁सस्ती	-13581
▁खींचने	-13582
▁नमूनों	-13583
▁नेटवर्	-13584
▁प्रकरण	-13585
▁फाइलों	-13586
▁ब्रांड	-13587
▁भवभूति	-13588
▁मोहताज	-13589
▁सुनाया	-13590
▁आनेवाली	-13591
▁सरोजिनी	-13592
▁अनुरक्षण	-13593
▁एकाधिकार	-13594
▁परमात्मा	-13595
▁विनम्रता	-13596
ऐब	-13597
सौ	-13598
हट	-13599
Lex	-13600
अज़	-13601
ुना	-13602
▁ऑल	-13603
▁चह	-13604
▁शिम	-13605
कीकरण	-13606
तुल्य	-13607
बेडकर	-13608
्रेसी	-13609
▁कड़ा	-13610
▁गुहा	-13611
▁निपु	-13612
▁भट्ट	-13613
▁मद्य	-13614
▁लशकर	-13615
▁२००७	-13616
▁घुटने	-13617
▁तौरात	-13618
▁पत्रा	-13619
▁बजाएँ	-13620
▁मैथुन	-13621
▁राजने	-13622
▁दिलाता	-13623
▁प्रहार	-13624
▁मिटाकर	-13625
▁औपनिवेश	-13626
▁जनशक्ति	-13627
▁वार्मिंग	-13628
▁गिड़गिड़ा	-13629
▁नरेन्‍द्र	-13630
UT	-13631
ंन	-13632
▁ं	-13633
ंधा	-13634
एसी	-13635
▁रज	-13636
र्दे	-13637
लेटर	-13638
ानात	-13639
▁जेर	-13640
▁रघु	-13641
▁हृद	-13642
इसमें	-13643
मेनान	-13644
▁गयाः	-13645
▁चेता	-13646
▁फाड़	-13647
▁बेवक	-13648
▁स्टे	-13649
दक्षिण	-13650
▁अक्लम	-13651
▁अड्डा	-13652
▁कीड़े	-13653
▁कोल्ह	-13654
▁ज्यों	-13655
▁वल्लभ	-13656
▁अपनाते	-13657
▁कहेगें	-13658
▁दीवाना	-13659
▁दौड़ते	-13660
▁परिधान	-13661
▁विधिवत	-13662
▁चलचित्र	-13663
▁बुढ़ापे	-13664
▁संभवतया	-13665
▁सुप्रीम	-13666
▁क़ुरबानी	-13667
▁रिपोर्टों	-13668
▁सृजनात्मक	-13669
,?	-13670
kt	-13671
ror	-13672
बला	-13673
▁66	-13674
▁li	-13675
चढ़ा	-13676
देशा	-13677
न्टर	-13678
मध्य	-13679
▁अजन	-13680
▁करण	-13681
▁चैक	-13682
▁थीम	-13683
विस्त	-13684
▁अकसर	-13685
▁अवशो	-13686
▁कुचल	-13687
नाइटेड	-13688
▁अड्डे	-13689
▁सुनना	-13690
▁स्राव	-13691
धिकारों	-13692
▁उपनिषद	-13693
▁कपड़ों	-13694
▁चित्रा	-13695
▁छवियाँ	-13696
▁यदुनाथ	-13697
विज्ञानी	-13698
▁आक्रामक	-13699
▁वृंदावन	-13700
▁शुद्धता	-13701
▁ज्ञानवान	-13702
▁बुराइयाँ	-13703
▁शिकायतें	-13704
▁सुस्पष्ट	-13705
ill	-13706
फ्फ	-13707
ज्या	-13708
भूषा	-13709
▁कौर	-13710
खानों	-13711
विवाह	-13712
ांतिक	-13713
▁'{0}	-13714
▁उतरे	-13715
▁बदतर	-13716
▁बुजु	-13717
▁रूपए	-13718
▁स्पे	-13719
▁अलगाव	-13720
▁इरादे	-13721
▁ऊँटनी	-13722
▁कदमों	-13723
▁पिक्स	-13724
▁प्रवी	-13725
संस्कृत	-13726
▁अधिभार	-13727
▁प्लेयर	-13728
▁बेज़ार	-13729
▁मुसाफ़	-13730
▁पुकारने	-13731
▁पुराणों	-13732
▁प्राणिक	-13733
▁सदाबहार	-13734
▁अनुपलब्ध	-13735
▁स्टेशनों	-13736
▁स्मारकों	-13737
▁पक्षकारों	-13738
▁संयंत्रों	-13739
▁अभियांत्रिकी	-13740
▁कार्यक्षेत्र	-13741
▁इस्लामवादियों	-13742
▁प्रौद्योगिकीय	-13743
->	-13744
rib	-13745
लीम	-13746
ाफ़	-13747
▁औस	-13748
▁गह	-13749
ंदों	-13750
कर्ण	-13751
ण्डा	-13752
ैक्स	-13753
▁छठा	-13754
▁बख़	-13755
दान्त	-13756
▁जूते	-13757
▁भ्रा	-13758
▁लिफा	-13759
▁सिले	-13760
▁सोलह	-13761
▁सोशल	-13762
▁जड़ें	-13763
▁पक्के	-13764
▁परिधि	-13765
▁बेवकू	-13766
▁संवित	-13767
▁साहिब	-13768
▁इसमाईल	-13769
▁गुणगान	-13770
▁पकड़कर	-13771
▁विचलित	-13772
▁सिक्के	-13773
▁हाइड्र	-13774
▁नानालाल	-13775
▁मानेंगे	-13776
▁परिचर्चा	-13777
▁ज़बरदस्ती	-13778
▁तुलनात्मक	-13779
▁प्रस्थिति	-13780
▁पत्रकारिता	-13781
षऋ	-13782
Uri	-13783
ith	-13784
ंतक	-13785
बाइ	-13786
सले	-13787
ारत	-13788
DUCT	-13789
क़ौम	-13790
कांड	-13791
तनों	-13792
यूसु	-13793
र्पण	-13794
वक्त	-13795
ाफिल	-13796
▁अंट	-13797
▁कले	-13798
▁छाँट	-13799
▁दिक्	-13800
▁देवे	-13801
LexUri	-13802
आख़िरत	-13803
क़ुदरत	-13804
क़ुरआन	-13805
ग्रन्थ	-13806
ान्तरण	-13807
िस्तान	-13808
▁अंडों	-13809
▁कारसा	-13810
▁खौलता	-13811
▁चौड़ा	-13812
▁पहनते	-13813
▁बहाने	-13814
▁भड़का	-13815
▁रेज़ा	-13816
▁ग़ाफिल	-13817
▁घुमाएँ	-13818
▁रूसवाई	-13819
▁चंद्रमा	-13820
▁पत्रकार	-13821
▁फेफड़ों	-13822
▁राजनयिक	-13823
▁सज़ावार	-13824
▁साझेदार	-13825
▁मुब्तिला	-13826
▁यात्राओं	-13827
LexUriServ	-13828
▁परम्परागत	-13829
▁ब्रह्मांड	-13830
▁मंत्रिपरिषद	-13831
▁कारस्तानियों	-13832
cc	-13833
ha	-13834
अरे	-13835
़्त	-13836
गर्भ	-13837
न्जा	-13838
▁आसन	-13839
▁तान	-13840
▁मजे	-13841
▁मेक	-13842
▁सबक	-13843
्रीका	-13844
▁(199	-13845
▁1973	-13846
▁उगाई	-13847
▁डेमो	-13848
▁नासा	-13849
▁महज़	-13850
ानियों	-13851
▁अल्पा	-13852
▁आभारी	-13853
▁निजाम	-13854
▁बजाने	-13855
▁बरसों	-13856
▁मानें	-13857
ौपचारिक	-13858
▁आरोपों	-13859
▁उपास्य	-13860
▁तिब्बत	-13861
▁परिक्र	-13862
▁फ़ारसी	-13863
▁बैकेंड	-13864
▁राममोहन	-13865
▁सबवर्सन	-13866
▁प्रांतीय	-13867
▁प्राप्‍त	-13868
▁बहिष्कार	-13869
▁परिवीक्षाधीन	-13870
▁परिस्थितियां	-13871
28	-13872
▁.	-13873
ंजक	-13874
बाध	-13875
ैंप	-13876
▁5,	-13877
ंकार	-13878
जवाब	-13879
र्थक	-13880
▁शहद	-13881
▁शोथ	-13882
बाक्स	-13883
▁(198	-13884
▁उतरा	-13885
▁ग्ले	-13886
▁ट्यू	-13887
▁ललित	-13888
▁अपहरण	-13889
▁कस्टम	-13890
▁ग़ायब	-13891
▁चांदी	-13892
▁टिड्ड	-13893
▁परिकल	-13894
▁लसीका	-13895
▁वीरता	-13896
▁अभिदाय	-13897
▁पैदाइश	-13898
निरपेक्ष	-13899
▁वर्चुअल	-13900
▁मध्यस्थता	-13901
▁अत्यावश्यक	-13902
▁अभिलेखागार	-13903
▁संवेदनशीलता	-13904
VD	-13905
ऊं	-13906
रणी	-13907
▁खट	-13908
iver	-13909
खड़ा	-13910
दिनी	-13911
सर्व	-13912
ारें	-13913
▁उपस	-13914
▁दाब	-13915
जिहाद	-13916
श्रित	-13917
▁पडता	-13918
▁लड़क	-13919
▁विज़	-13920
▁उठाये	-13921
▁कच्ची	-13922
▁खर्चे	-13923
▁टेम्प	-13924
▁ढूँढ़	-13925
▁बक्से	-13926
▁बर्मा	-13927
▁अनुरुप	-13928
▁अनेकों	-13929
▁अमिताभ	-13930
▁कुटुंब	-13931
▁ख़ातिर	-13932
▁निकटतम	-13933
▁निभाने	-13934
▁पुष्पा	-13935
▁मेट्रो	-13936
▁रोमांच	-13937
▁सिस्को	-13938
▁कुंजीपट	-13939
▁चिपकाएँ	-13940
▁आंदोलनों	-13941
▁राज्यसभा	-13942
▁रियासतों	-13943
▁पार्टियों	-13944
▁प्रतिभाशाली	-13945
▁प्रवृत्तियों	-13946
झक	-13947
तई	-13948
खड़	-13949
डैक	-13950
बीच	-13951
शरण	-13952
्शन	-13953
टीआई	-13954
डेटा	-13955
▁इको	-13956
▁लती	-13957
▁लाय	-13958
बराबर	-13959
ानिया	-13960
▁अनुष	-13961
▁चरित	-13962
▁शीशे	-13963
▁खोलकर	-13964
▁ग्रेट	-13965
▁जर्नल	-13966
▁त्रास	-13967
▁विस्म	-13968
▁स्थाय	-13969
▁अर्थों	-13970
▁ढूंढने	-13971
▁विचारा	-13972
▁सिद्धि	-13973
▁औषधियों	-13974
▁जाएंगें	-13975
▁जवाबदेही	-13976
▁प्रजातियां	-13977
-18	-13978
ंगण	-13979
ईजी	-13980
सही	-13981
▁9.	-13982
▁टु	-13983
इसकी	-13984
उच्च	-13985
वादा	-13986
सिला	-13987
▁use	-13988
▁आइट	-13989
शियां	-13990
▁कुला	-13991
▁तालि	-13992
▁तिरू	-13993
▁द्रो	-13994
▁नक्ष	-13995
▁माइन	-13996
▁मोनो	-13997
▁उड़ने	-13998
▁उपवास	-13999
▁अन्तरा	-14000
▁न्यासी	-14001
▁दूतावास	-14002
▁मालिकों	-14003
▁विवरणों	-14004
▁शब्दकूट	-14005
▁संकुचित	-14006
▁सुल्तान	-14007
▁अनौपचारिक	-14008
▁पुर्तगाली	-14009
▁स्वतन्त्रता	-14010
to	-14011
धीय	-14012
्राह	-14013
▁आलम	-14014
▁कंठ	-14015
▁छठी	-14016
▁छुप	-14017
▁माई	-14018
▁शिर	-14019
उत्तर	-14020
▁निःश	-14021
▁बतला	-14022
▁यतीम	-14023
▁साँस	-14024
प्रवाह	-14025
▁महोदय	-14026
▁सजाया	-14027
▁जटिलता	-14028
▁निर्मल	-14029
▁अक्षमता	-14030
▁नातेदार	-14031
▁कम्प्यूट	-14032
▁क्रमादेश	-14033
▁निरीक्षक	-14034
▁राष्‍ट्रीय	-14035
▁प्रतिबिंबित	-14036
76	-14037
टू	-14038
जाद	-14039
।--	-14040
▁72	-14041
▁II	-14042
▁\\	-14043
ब्रू	-14044
▁GNU	-14045
▁You	-14046
▁घोल	-14047
▁तले	-14048
▁राइ	-14049
स्कों	-14050
ोपड़ी	-14051
▁HTTP	-14052
▁आवेग	-14053
▁मोहर	-14054
▁gnome	-14055
▁निरोध	-14056
▁बन्दर	-14057
▁साइबर	-14058
▁नेपाली	-14059
▁मन्त्र	-14060
▁निस्पृह	-14061
▁सराहनीय	-14062
▁द्वितीयक	-14063
▁असुरक्षित	-14064
▁स्टार्टअप	-14065
▁विकासात्मक	-14066
५०	-14067
षेक	-14068
सिं	-14069
▁le	-14070
दीकी	-14071
बीसी	-14072
ल्चर	-14073
ूंगी	-14074
▁आसा	-14075
▁घनी	-14076
▁फाल	-14077
▁सिय	-14078
▁बाँट	-14079
▁बेहि	-14080
न्त्री	-14081
▁चुनते	-14082
▁पुतली	-14083
▁मथुरा	-14084
▁सजावट	-14085
▁स्पूल	-14086
▁जोधपुर	-14087
▁प्रिंस	-14088
▁अमेरिकन	-14089
▁दोहराया	-14090
▁औपनिवेशिक	-14091
▁कर्त्तव्य	-14092
▁कार्यनीति	-14093
▁मुद्रास्फीति	-14094
49	-14095
DE	-14096
UR	-14097
ैग	-14098
-08	-14099
टेक	-14100
उसने	-14101
दांत	-14102
सेसर	-14103
▁अहा	-14104
▁ज़ब	-14105
▁भाप	-14106
ख़ाना	-14107
ग्राफ	-14108
वासित	-14109
▁क्वा	-14110
▁गर्द	-14111
▁बुझा	-14112
पद्धति	-14113
▁कुछेक	-14114
▁टिकाऊ	-14115
▁दर्पण	-14116
▁मुर्ग	-14117
▁रेशमी	-14118
▁लगाता	-14119
▁सीखते	-14120
ategory	-14121
▁ज़रिये	-14122
▁भ्रष्ट	-14123
▁उपबंधित	-14124
▁पोतन्ना	-14125
▁फॉर्मेट	-14126
▁हाइड्रो	-14127
▁गतिशीलता	-14128
▁तर्कसंगत	-14129
▁म्यांमार	-14130
▁अधिनिर्णय	-14131
▁इंडोनेशिया	-14132
▁शेयरधारकों	-14133
दौ	-14134
सक	-14135
दीव	-14136
नार	-14137
िके	-14138
urop	-14139
एमपी	-14140
डीसी	-14141
शियम	-14142
्वती	-14143
▁600	-14144
▁क़े	-14145
▁खरा	-14146
▁फटा	-14147
▁राख	-14148
▁१९४	-14149
कार्ब	-14150
न्दरी	-14151
▁कमान	-14152
▁दोगे	-14153
▁बेचा	-14154
▁भृंग	-14155
▁लापर	-14156
▁स्के	-14157
श्मीरी	-14158
▁आकारः	-14159
▁एग्री	-14160
▁गर्भग	-14161
▁चलाते	-14162
▁शिष्यों	-14163
▁उद्घोषणा	-14164
▁माइक्रोस	-14165
▁हिन्दुस्तानी	-14166
38	-14167
अफ़	-14168
स्ड	-14169
सानी	-14170
▁जुन	-14171
▁हें	-14172
क्सीन	-14173
नुसार	-14174
ब्‍दी	-14175
▁अनार	-14176
▁उठती	-14177
▁चांद	-14178
▁थकान	-14179
▁दोहन	-14180
▁माँस	-14181
▁सेमी	-14182
▁२००६	-14183
▁बेजबर	-14184
▁मुझको	-14185
▁उदारता	-14186
▁भाषणों	-14187
▁महानगर	-14188
▁मुहताज	-14189
▁साइटों	-14190
▁सुनाता	-14191
▁प्रत्ये	-14192
▁महासचिव	-14193
▁विशेषतः	-14194
▁संप्रेषण	-14195
▁सर्वोपरि	-14196
▁सामग्रियों	-14197
खना	-14198
जपा	-14199
मास	-14200
सन्	-14201
सरी	-14202
ोंक	-14203
यनों	-14204
समाज	-14205
ादार	-14206
▁139	-14207
▁अथक	-14208
▁एम्	-14209
▁जेब	-14210
▁टॉम	-14211
भावित	-14212
▁उंगल	-14213
▁मीठा	-14214
नेस्को	-14215
प्रेषण	-14216
▁'{0}'	-14217
▁(1956	-14218
▁उलफ़त	-14219
▁कमाने	-14220
▁खौलते	-14221
▁तामील	-14222
▁मौर्य	-14223
▁संभाग	-14224
विभागों	-14225
▁क्षिति	-14226
▁ख़ैरात	-14227
▁सीमाएं	-14228
▁2006-07	-14229
▁अध्यापन	-14230
▁गर्भगृह	-14231
▁विभागीय	-14232
▁शीघ्रता	-14233
▁सूचनाएं	-14234
▁गोपनीयता	-14235
▁विराजमान	-14236
▁शताब्‍दी	-14237
▁अपेक्षाओं	-14238
▁तुल्यकालन	-14239
▁पंक्तिबद्ध	-14240
65	-14241
NT	-14242
tor	-14243
कोप	-14244
फूल	-14245
हनी	-14246
▁1%	-14247
roup	-14248
अंदा	-14249
जैसा	-14250
नामी	-14251
वाहन	-14252
शेखर	-14253
सिंग	-14254
▁1/2	-14255
▁{1}	-14256
▁निम	-14257
▁सरा	-14258
भांति	-14259
ेक्टर	-14260
▁उभरे	-14261
▁तेरह	-14262
म्बख्त	-14263
▁उद्भव	-14264
▁उल्टा	-14265
▁जवानी	-14266
▁झूठला	-14267
▁देसाई	-14268
▁बुर्द	-14269
▁मुंशी	-14270
न्होंने	-14271
▁जाएगें	-14272
▁निद्रा	-14273
▁प्रकटन	-14274
▁रेड्डी	-14275
▁विमर्श	-14276
▁रिएक्टर	-14277
▁उदासीनता	-14278
▁लाभान्वित	-14279
ive	-14280
टलर	-14281
सां	-14282
▁२६	-14283
ख़ैर	-14284
तबली	-14285
फ़ान	-14286
ाबिल	-14287
▁छुआ	-14288
▁पैक	-14289
▁मनु	-14290
▁रेज	-14291
सुधार	-14292
्मीकि	-14293
▁जेने	-14294
▁दुरा	-14295
▁निगल	-14296
▁साधु	-14297
▁सूरी	-14298
▁काबुल	-14299
▁गुम्ब	-14300
▁ग्रीक	-14301
▁दुष्ट	-14302
▁पठनीय	-14303
▁मलामत	-14304
▁शिथिल	-14305
▁संघों	-14306
▁सीढ़ी	-14307
▁निशाना	-14308
▁बैठकें	-14309
▁सिक्का	-14310
▁दीपावली	-14311
▁दूरदर्शन	-14312
▁निर्यातक	-14313
▁सर्वांगी	-14314
ermissions	-14315
▁ट्रिब्यूनल	-14316
▁तत्वदर्शिता	-14317
▁राष्ट्रमंडल	-14318
२०	-14319
ठाई	-14320
पीओ	-14321
▁धर	-14322
ghan	-14323
menu	-14324
डाउन	-14325
फीक़	-14326
वारा	-14327
▁मरु	-14328
▁लवण	-14329
▁संख	-14330
▁१००	-14331
▁उभरा	-14332
▁जहॉन	-14333
▁डूबो	-14334
▁मरीज	-14335
▁साइड	-14336
युक़्त	-14337
िलिखित	-14338
्तिहान	-14339
▁निकली	-14340
▁पैकेट	-14341
▁फरीक़	-14342
▁बुलाओ	-14343
▁मिर्च	-14344
▁मुख्त	-14345
▁लॉगइन	-14346
▁सचेतन	-14347
▁अंधकार	-14348
▁आकृष्ट	-14349
▁इन्जील	-14350
▁कामगार	-14351
▁कीमतें	-14352
▁कीर्ति	-14353
▁जिबरील	-14354
▁जिलाता	-14355
▁दिलाना	-14356
▁परदाज़	-14357
▁फज़ीलत	-14358
▁वर्जित	-14359
▁मग़फिरत	-14360
आज्ञाकारी	-14361
▁इम्तिहान	-14362
▁प्रतिमान	-14363
▁प्रतिवाद	-14364
▁नाइट्रोजन	-14365
▁राजेन्द्र	-14366
▁अनुकम्पाओं	-14367
▁राष्‍ट्रपति	-14368
‍ध	-14369
14.	-14370
til	-14371
येक	-14372
▁St	-14373
जिकल	-14374
सबसे	-14375
ास्व	-14376
▁ओड़	-14377
▁गैल	-14378
▁भरण	-14379
▁मोम	-14380
ज़ूरी	-14381
ापन्न	-14382
▁1965	-14383
▁1975	-14384
▁घण्ट	-14385
▁पियो	-14386
▁युगल	-14387
▁वृहत	-14388
▁सोचे	-14389
istbox	-14390
▁आईएसओ	-14391
▁इजाजत	-14392
▁उदारी	-14393
▁एटीएम	-14394
▁कठपुत	-14395
▁किफाय	-14396
▁गैसों	-14397
▁अज़ीज़	-14398
▁उपद्रव	-14399
▁ड्यूटी	-14400
▁दांतों	-14401
▁विमानन	-14402
▁घटनाक्रम	-14403
▁जानबूझकर	-14404
▁पहुंचाया	-14405
▁अतिरिक़्त	-14406
▁त्यागपत्र	-14407
▁न्यायसंगत	-14408
▁प्रतिपादन	-14409
▁कनेक्टिविटी	-14410
▁पुनर्निर्माण	-14411
ma	-14412
डॉ	-14413
Con	-14414
key	-14415
मरण	-14416
हाए	-14417
▁41	-14418
भाष्	-14419
▁किट	-14420
▁फंस	-14421
▁सडक	-14422
.2018	-14423
ction	-14424
ोरियम	-14425
▁उनमे	-14426
▁दलित	-14427
▁परिर	-14428
▁रंगः	-14429
इस्लाम	-14430
कारिणी	-14431
संग्रह	-14432
सुविधा	-14433
▁अनजान	-14434
▁उभरती	-14435
▁करतूत	-14436
▁दुर्द	-14437
▁ब्लैक	-14438
▁मनोहर	-14439
▁मौसमी	-14440
▁लद्दा	-14441
▁सुचार	-14442
▁उत्खनन	-14443
▁देखेगा	-14444
▁नागपुर	-14445
▁निभाता	-14446
▁राजकोष	-14447
▁श्रद्ध	-14448
▁तीक्ष्ण	-14449
▁दुरुस्त	-14450
▁पक्षपात	-14451
▁पुनर्जी	-14452
▁मोहब्बत	-14453
▁मुलाक़ात	-14454
▁सम्पादित	-14455
▁हस्तांतरित	-14456
▁सेवानिवृत्त	-14457
ey	-14458
sh	-14459
100	-14460
ual	-14461
नबी	-14462
बेट	-14463
भंड	-14464
मैप	-14465
स्र	-14466
ानक	-14467
ूरक	-14468
▁आड	-14469
▁खन	-14470
SION	-14471
टीसी	-14472
▁125	-14473
▁ताश	-14474
▁बिज	-14475
▁भया	-14476
▁रूम	-14477
▁अकाल	-14478
▁कैदी	-14479
▁क्ली	-14480
▁टूटी	-14481
▁बोनस	-14482
निकेतन	-14483
▁कालीन	-14484
▁खरीदी	-14485
▁नायडू	-14486
▁निहाल	-14487
▁बाइंड	-14488
▁विध्व	-14489
▁अनुभवी	-14490
▁क़ाबिल	-14491
▁कार्या	-14492
▁पूर्वज	-14493
▁बुकिंग	-14494
▁संकुचन	-14495
▁स्टैंड	-14496
कर्मियों	-14497
▁अनेकाने	-14498
▁चार्ल्स	-14499
▁दुरूस्त	-14500
▁सूचनाएँ	-14501
ghanistan	-14502
▁एचटीएमएल	-14503
▁जनसाधारण	-14504
▁प्रतिबिंब	-14505
▁माननेवाले	-14506
▁पाकिस्तानी	-14507
▁विद्यासागर	-14508
▁प्रतिस्पर्धी	-14509
▁रजिस्ट्रीकरण	-14510
सच	-14511
amp	-14512
ath	-14513
पिन	-14514
फली	-14515
रिस	-14516
ोड़	-14517
▁58	-14518
तोड़	-14519
न्थि	-14520
ष्‍ठ	-14521
ुलकर	-14522
▁The	-14523
▁कॉर	-14524
▁मुल	-14525
▁शंख	-14526
द्रिक	-14527
▁1977	-14528
▁अम्ब	-14529
▁औंधे	-14530
▁कसरत	-14531
▁जनमत	-14532
▁डेढ़	-14533
▁दाता	-14534
▁रोपण	-14535
▁लगना	-14536
▁वज़न	-14537
▁अठारह	-14538
▁आजिज़	-14539
▁प्रान	-14540
▁कृष्णा	-14541
▁छानबीन	-14542
▁निष्का	-14543
▁परिहास	-14544
▁बनाएगा	-14545
▁निधियां	-14546
▁मार्जिन	-14547
▁अनेकानेक	-14548
▁उल्लेखित	-14549
▁प्रतियां	-14550
▁प्रमाणों	-14551
▁साधारणतया	-14552
▁प्रस्तावना	-14553
▁विश्वसनीयता	-14554
-14	-14555
ख्व	-14556
दून	-14557
ware	-14558
साधक	-14559
▁180	-14560
▁दाद	-14561
▁धुन	-14562
▁भती	-14563
▁हुम	-14564
शांति	-14565
▁कैले	-14566
▁लाती	-14567
▁स्‍व	-14568
कालयों	-14569
ड़ियाँ	-14570
▁आत्मक	-14571
▁घोड़ा	-14572
▁ढाँचा	-14573
▁तुझसे	-14574
▁पेयजल	-14575
▁वरदान	-14576
राज्यों	-14577
▁कैरियर	-14578
▁ग्रामो	-14579
▁विषाणु	-14580
▁सम्मेल	-14581
▁General	-14582
▁अद्यतनी	-14583
▁प्रभारी	-14584
▁विमानों	-14585
lo	-14586
रथ	-14587
एगी	-14588
फ़ल	-14589
फ्ल	-14590
सभी	-14591
न्यू	-14592
पीयू	-14593
▁कोच	-14594
▁गान	-14595
▁तड़	-14596
▁1984	-14597
▁कन्व	-14598
▁टीके	-14599
▁नुत्	-14600
▁शोधन	-14601
▁संयम	-14602
▁असहाय	-14603
▁कहावत	-14604
▁जहाज़	-14605
▁दुसरे	-14606
▁बागान	-14607
▁लौटते	-14608
▁सस्ता	-14609
oftware	-14610
▁छात्रा	-14611
▁बॉम्बे	-14612
▁मैनुअल	-14613
▁रहूँगा	-14614
▁राजपूत	-14615
▁विवेचन	-14616
▁शौचालय	-14617
▁सातवीं	-14618
▁हुज़ूर	-14619
▁अभियोजन	-14620
▁कंट्रोल	-14621
▁गुरुदेव	-14622
▁मिसालें	-14623
▁सर्वत्र	-14624
▁सिलसिला	-14625
▁अमानतदार	-14626
▁उदाहरणों	-14627
▁मानसिकता	-14628
▁प्रकाशनों	-14629
▁परिसंपत्ति	-14630
ET	-14631
नॉ	-14632
ईसी	-14633
कहा	-14634
ग़ु	-14635
गुल	-14636
डाक	-14637
हीम	-14638
atus	-14639
enef	-14640
ंगनी	-14641
प्रौ	-14642
समान	-14643
हाने	-14644
▁ढील	-14645
▁रमण	-14646
शीघ्र	-14647
▁अनभि	-14648
▁उतरी	-14649
▁औसतन	-14650
▁करोड	-14651
▁टेबल	-14652
▁मॉनी	-14653
▁लंका	-14654
▁लेखे	-14655
▁हथकर	-14656
अंग्रे	-14657
नमार्क	-14658
विरोधी	-14659
स्‍तुत	-14660
▁धर्मा	-14661
▁नलिका	-14662
▁फसलें	-14663
तुम्हें	-14664
▁नदियां	-14665
▁ब्यौरा	-14666
▁महत्तर	-14667
▁रेटिंग	-14668
▁शिवाजी	-14669
▁कीटनाशक	-14670
▁कोल्हटकर	-14671
▁तत्त्वों	-14672
▁उन्नीसवीं	-14673
▁कॉर्पोरेट	-14674
ूड	-14675
-2.	-14676
16.	-14677
इसे	-14678
कूद	-14679
ट्ठ	-14680
तीब	-14681
▁1:	-14682
▁भो	-14683
कार्	-14684
चारे	-14685
जिंग	-14686
ध्वा	-14687
विड़	-14688
▁269	-14689
▁अक़	-14690
▁ऋणी	-14691
▁बरफ	-14692
गाहों	-14693
धर्मी	-14694
फिरों	-14695
रिलिक	-14696
लैण्ड	-14697
वर्धक	-14698
िकाने	-14699
▁आदिम	-14700
▁एसिड	-14701
▁ख़री	-14702
▁जलीय	-14703
▁ढाँक	-14704
▁रंजन	-14705
▁लाला	-14706
▁लेटे	-14707
▁खजाने	-14708
▁फेरकर	-14709
▁भरोसे	-14710
▁राजेश	-14711
▁साहित	-14712
PRODUCT	-14713
व्यापार	-14714
▁अद्वैत	-14715
▁असीमित	-14716
▁गणितीय	-14717
▁जहाजों	-14718
▁नदियाँ	-14719
▁सद्भाव	-14720
▁प्रकाशक	-14721
▁प्रतीका	-14722
▁मार्टिन	-14723
▁परित्याग	-14724
▁रूपान्तर	-14725
▁संतुष्टि	-14726
▁सम्मेलनों	-14727
▁नर्मदाशंकर	-14728
▁अंतःस्थापित	-14729
lib	-14730
.200	-14731
अन्य	-14732
रियल	-14733
ल्लू	-14734
हमति	-14735
▁अमा	-14736
▁कौम	-14737
▁बढे	-14738
कुदरत	-14739
चुपके	-14740
फ्तार	-14741
वाजों	-14742
▁1955	-14743
▁औरों	-14744
▁घुसा	-14745
▁जब्त	-14746
▁मतों	-14747
▁वहॉँ	-14748
enefit	-14749
▁अजनबी	-14750
▁अनगिन	-14751
▁आरज़ू	-14752
▁किसके	-14753
▁क्षीण	-14754
▁जाग्र	-14755
▁डिस्प	-14756
▁बेरोज	-14757
▁सेंटी	-14758
▁चार्टर	-14759
▁परिसंघ	-14760
▁महत्‍व	-14761
▁शनिवार	-14762
▁उपलब्‍ध	-14763
▁निगाहें	-14764
▁पहुंचना	-14765
▁अस्पृश्य	-14766
▁प्रस्‍तुत	-14767
ंबी	-14768
उधर	-14769
बढ़	-14770
▁07	-14771
▁la	-14772
▁र्	-14773
गुरु	-14774
फ्रा	-14775
बैंक	-14776
िज्म	-14777
िताब	-14778
▁टूर	-14779
▁दीख	-14780
▁बहर	-14781
▁लटक	-14782
खास्त	-14783
ब्बुर	-14784
▁1963	-14785
▁अधिश	-14786
▁खंडन	-14787
▁जाली	-14788
▁दैवी	-14789
▁धीमा	-14790
▁पितृ	-14791
▁भीषण	-14792
▁भूले	-14793
▁माफी	-14794
▁रिंग	-14795
▁संचय	-14796
प्रिंट	-14797
▁क़ीमत	-14798
▁मंचों	-14799
▁संकोच	-14800
▁सिडबी	-14801
▁अविश्व	-14802
▁चमकदार	-14803
▁दूरभाष	-14804
▁यादगार	-14805
▁नापसन्द	-14806
▁परिजनों	-14807
▁विलुप्त	-14808
▁शैलियों	-14809
▁अतिक्रमण	-14810
▁देशभक्ति	-14811
▁निर्धनता	-14812
▁प्रदूषित	-14813
▁परिलक्षित	-14814
▁बल्लेबाजी	-14815
▁कार्यनीतिक	-14816
▁निम्नानुसार	-14817
▁वास्तुशिल्प	-14818
-09	-14819
खलन	-14820
बनी	-14821
शरी	-14822
स्वर	-14823
▁(30	-14824
▁ऑयल	-14825
▁जाम	-14826
▁पूल	-14827
ख्यान	-14828
ठासीन	-14829
र्करा	-14830
वाड़ा	-14831
सिर्फ	-14832
▁1920	-14833
▁1981	-14834
▁menu	-14835
▁मेजर	-14836
▁अन्धे	-14837
▁चालुक	-14838
▁चिंघा	-14839
▁पकाने	-14840
▁सेमिन	-14841
ान्तरित	-14842
▁कृषकों	-14843
▁निकलें	-14844
▁निरूपण	-14845
▁बर्ताव	-14846
▁मिलाया	-14847
अनुच्छेद	-14848
▁कार्रवा	-14849
▁विकल्पः	-14850
▁ऑब्जेक्ट	-14851
▁रिपब्लिक	-14852
▁सामान्यत	-14853
▁सम्प्रदाय	-14854
red	-14855
टीई	-14856
भरे	-14857
▁74	-14858
▁अघ	-14859
पट्ट	-14860
▁एंप	-14861
▁डाँ	-14862
▁पिक	-14863
▁पॉव	-14864
▁1908	-14865
▁अभिश	-14866
▁काटे	-14867
▁डराए	-14868
▁दफ्त	-14869
▁पेटी	-14870
▁फेडर	-14871
▁मल्ल	-14872
▁मुखौ	-14873
▁मेरु	-14874
▁यूरे	-14875
▁रीढ़	-14876
▁शुऐब	-14877
▁हैंड	-14878
▁कंधों	-14879
▁कीमती	-14880
▁खींचा	-14881
▁परिणत	-14882
▁बांटा	-14883
▁मध्या	-14884
▁संभोग	-14885
▁उदयपुर	-14886
▁चिराग़	-14887
▁कश्मीरी	-14888
▁राजशाही	-14889
▁उपेक्षित	-14890
▁परमेश्वर	-14891
▁सर्वांगीण	-14892
▁पुष्पांजलि	-14893
CS	-14894
ord	-14895
ूको	-14896
▁68	-14897
▁२१	-14898
गलों	-14899
ज़रा	-14900
मयिक	-14901
र्मर	-14902
वादन	-14903
▁आधि	-14904
▁गड्	-14905
▁बची	-14906
▁सूद	-14907
▁1942	-14908
▁आमने	-14909
▁काना	-14910
▁गोल्	-14911
▁पायल	-14912
▁बूझे	-14913
▁मसख़	-14914
▁वंशज	-14915
स्वरुप	-14916
▁अभिनव	-14917
▁आपूर्	-14918
▁कोनों	-14919
▁ज़िना	-14920
▁नोटों	-14921
▁प्लान	-14922
▁फैक्स	-14923
▁लेखकः	-14924
▁विनिय	-14925
▁स्पैम	-14926
▁Public	-14927
▁आईआईटी	-14928
▁चश्में	-14929
▁चुकौती	-14930
▁देखिये	-14931
▁पैमाना	-14932
▁प्रत्‍	-14933
▁महानता	-14934
▁मार्शल	-14935
▁विभक्त	-14936
▁टेक्स्ट	-14937
र्विज्ञान	-14938
▁अंटार्कट	-14939
▁संख्याओं	-14940
पैग़म्बरों	-14941
ts	-14942
गै	-14943
जग	-14944
ोपन	-14945
ौली	-14946
इसका	-14947
चिकर	-14948
शन्स	-14949
ियोप	-14950
▁mon	-14951
▁उपल	-14952
▁नशी	-14953
▁पिच	-14954
▁भाष	-14955
Count	-14956
कुफ्र	-14957
मार्क	-14958
सामने	-14959
▁1962	-14960
▁कॉले	-14961
▁फकीर	-14962
▁बिंद	-14963
▁बीएस	-14964
▁लेंस	-14965
स्थानी	-14966
▁घटाकर	-14967
▁तेलंग	-14968
▁श्रवण	-14969
▁संगमर	-14970
▁गोविंद	-14971
▁निर्बल	-14972
▁फ्रेंच	-14973
▁वायुयान	-14974
▁इलैक्ट्र	-14975
▁वायुसेना	-14976
▁संशोधनों	-14977
▁कार्यसूची	-14978
▁उपमहाद्वीप	-14979
▁दृष्टिगोचर	-14980
▁पुरस्कारों	-14981
")	-14982
इम	-14983
ॉं	-14984
13.	-14985
ost	-14986
शमन	-14987
ायु	-14988
ेंग	-14989
एफआर	-14990
पर्व	-14991
▁1.5	-14992
▁एसी	-14993
▁ढका	-14994
▁पाम	-14995
▁बुझ	-14996
▁हर्	-14997
older	-14998
प्तान	-14999
▁1857	-15000
▁1945	-15001
▁1978	-15002
▁उठना	-15003
▁जुडे	-15004
▁नवयु	-15005
▁पठित	-15006
▁बहके	-15007
▁सपाट	-15008
अज़ाबे	-15009
कुफ़्र	-15010
दिहानी	-15011
▁जलाने	-15012
▁दिलाओ	-15013
▁दूषित	-15014
▁नसारा	-15015
▁बुख्ल	-15016
▁यौगिक	-15017
▁विखंड	-15018
केन्द्र	-15019
ख़तेयार	-15020
त्मेनान	-15021
▁क़िबले	-15022
▁फ़रवरी	-15023
▁अन्यत्र	-15024
▁ख़ज़ाने	-15025
▁निवृत्त	-15026
▁पीठासीन	-15027
▁बेटियों	-15028
▁बेहिसाब	-15029
▁वैचारिक	-15030
▁सेनापति	-15031
▁अध्यापकों	-15032
▁कारगुज़ार	-15033
▁कार्यपालक	-15034
▁प्रयत्नों	-15035
▁मुन्तज़िर	-15036
▁याददिहानी	-15037
▁उत्तमकारों	-15038
▁सुप्रसिद्ध	-15039
▁दुर्भाग्यवश	-15040
▁साम्प्रदायिक	-15041
32	-15042
In	-15043
dr	-15044
▁hO	-15045
▁फॅ	-15046
ंस्य	-15047
आईपी	-15048
बख्श	-15049
▁सुष	-15050
ारिटी	-15051
▁अराज	-15052
▁झाड़	-15053
▁धागे	-15054
▁पारी	-15055
▁बारा	-15056
▁मकसद	-15057
▁लुत्	-15058
▁समयः	-15059
▁स्वय	-15060
▁अधिरो	-15061
▁अनोखी	-15062
▁कैम्प	-15063
▁खोजना	-15064
▁गुलाब	-15065
▁जड़ों	-15066
▁वालिद	-15067
▁कक्षों	-15068
▁खासतौर	-15069
▁संबधित	-15070
▁क्रीड़ा	-15071
▁परीक्षक	-15072
प्रक्रिया	-15073
▁साइरिलिक	-15074
ंरभ	-15075
गरण	-15076
▁इज	-15077
▁ऐल	-15078
▁घू	-15079
▁लल	-15080
lect	-15081
वेदी	-15082
▁फेल	-15083
▁रहस	-15084
कुमार	-15085
ग्रही	-15086
रक्षक	-15087
रीकरण	-15088
स्टेट	-15089
स्तंभ	-15090
ोत्सव	-15091
▁धमनी	-15092
▁बंधे	-15093
▁मोचन	-15094
▁संकर	-15095
▁सामी	-15096
▁सैयद	-15097
▁सोया	-15098
▁color	-15099
▁फूँका	-15100
▁रामान	-15101
▁इजराइल	-15102
▁आत्मकथा	-15103
▁ईर्ष्या	-15104
▁पहुँचना	-15105
▁सेंट्रल	-15106
▁चट्टानों	-15107
▁रहनेवाली	-15108
▁शुक्रवार	-15109
▁समामेलित	-15110
▁कांग्रेसी	-15111
▁वृत्तान्त	-15112
▁प्रतिस्थापन	-15113
▁हिंदुस्तानी	-15114
ॉम	-15115
oll	-15116
सरा	-15117
▁घी	-15118
▁रग	-15119
टलुक	-15120
तानी	-15121
पाती	-15122
मिला	-15123
सवार	-15124
िंगर	-15125
▁कवच	-15126
▁ज़ा	-15127
▁मृद	-15128
हमेशा	-15129
▁आइटम	-15130
▁खाती	-15131
▁गोबर	-15132
▁राशन	-15133
▁साधक	-15134
▁अनवरत	-15135
▁आठवीं	-15136
▁ईस्वी	-15137
▁छुट्ट	-15138
▁दिखती	-15139
▁देशभर	-15140
▁माइकल	-15141
ट्रिक्स	-15142
▁जीवन्त	-15143
▁लाइनों	-15144
▁सीवीएस	-15145
▁सुधारक	-15146
क्रिप्शन	-15147
▁अवरुद्ध	-15148
▁पार्वती	-15149
▁प्रवृति	-15150
▁वॉल्यूम	-15151
▁क्रमबद्ध	-15152
▁प्रमुखों	-15153
▁प्रकाशमान	-15154
▁विशेषताएँ	-15155
▁उम्मीदवारों	-15156
CC	-15157
बक	-15158
बम	-15159
रव	-15160
डिय	-15161
भरी	-15162
▁छी	-15163
▁२४	-15164
आईबी	-15165
मानव	-15166
मापी	-15167
स्रा	-15168
िटरी	-15169
▁कटक	-15170
▁कण्	-15171
▁खरे	-15172
▁टॉप	-15173
▁दूं	-15174
▁मिर	-15175
▁मैक	-15176
▁युव	-15177
▁हकी	-15178
त्तों	-15179
हत्या	-15180
▁कणों	-15181
▁करूं	-15182
▁घंटी	-15183
▁निशा	-15184
विदेशी	-15185
▁अंशों	-15186
▁उल्टे	-15187
▁धक्का	-15188
▁पत्रक	-15189
▁बेचैन	-15190
▁राहुल	-15191
▁विरूप	-15192
▁वेदना	-15193
▁व्यभि	-15194
▁हज़रत	-15195
मुस्लिम	-15196
स्वार्थ	-15197
▁1.4.19	-15198
▁button	-15199
▁अनाथों	-15200
▁उदात्त	-15201
▁कन्नड़	-15202
▁अवमानना	-15203
▁कोरियाई	-15204
▁पदोन्नति	-15205
▁प्राथमिकताओं	-15206
Cal	-15207
ana	-15208
ंभी	-15209
ट्य	-15210
िपल	-15211
▁झट	-15212
ance	-15213
व्‍य	-15214
▁उके	-15215
▁कवक	-15216
▁घटी	-15217
▁जलन	-15218
▁तूर	-15219
▁नशे	-15220
▁पिल	-15221
▁मदन	-15222
▁हिच	-15223
वृक्ष	-15224
संख्य	-15225
▁1935	-15226
▁ग़ैर	-15227
▁धड़क	-15228
▁पराग	-15229
▁सहने	-15230
▁सिला	-15231
▁इस्ती	-15232
▁जिंदा	-15233
▁तलाशी	-15234
▁तिब्ब	-15235
▁शिमला	-15236
▁साइंस	-15237
वार्षिक	-15238
▁एकाधिक	-15239
▁कप्तान	-15240
▁रियासत	-15241
▁सितारे	-15242
▁महारानी	-15243
▁मौद्रिक	-15244
▁संगमरमर	-15245
▁सिक्कों	-15246
व्यवस्थित	-15247
▁वृद्धावस्था	-15248
▁आयुर्विज्ञान	-15249
-(	-15250
AL	-15251
तट	-15252
नै	-15253
सऋ	-15254
ram	-15255
ज्म	-15256
डें	-15257
ुली	-15258
▁(7	-15259
जन्म	-15260
मेशन	-15261
▁केक	-15262
▁गूँ	-15263
▁तज़	-15264
▁थें	-15265
▁नमा	-15266
▁पका	-15267
▁फिस	-15268
▁समन	-15269
state	-15270
बन्धु	-15271
▁1939	-15272
▁कड़े	-15273
▁निरु	-15274
▁फायद	-15275
▁बचते	-15276
▁बालू	-15277
मंडलों	-15278
िबंधीय	-15279
▁चुम्ब	-15280
▁जागरण	-15281
▁जातीं	-15282
▁जुनून	-15283
▁ब्लॉग	-15284
▁भाजपा	-15285
▁भावों	-15286
▁सस्ते	-15287
ऑक्साइड	-15288
धारियों	-15289
▁कठोरता	-15290
▁काउंटर	-15291
▁कार्यो	-15292
▁निभाते	-15293
▁प्लांट	-15294
▁सवालों	-15295
▁अनुषंगी	-15296
▁पक्षकार	-15297
▁आकृतियों	-15298
▁क्रोमियम	-15299
▁परिचालित	-15300
▁वरीयताएँ	-15301
▁औजारपट्टी	-15302
▁टेक्नोलॉजी	-15303
▁परिवर्तनीय	-15304
▁स्थानापन्न	-15305
▁अर्थव्यवस्थाओं	-15306
झू	-15307
ोभ	-15308
▁59	-15309
▁ढे	-15310
▁मग	-15311
▁२३	-15312
कांग	-15313
नाशी	-15314
पाटी	-15315
सारी	-15316
ोज्य	-15317
▁चूह	-15318
मान्त	-15319
मिस्र	-15320
ोनियम	-15321
▁file	-15322
▁आइसल	-15323
▁इमेज	-15324
▁दीपक	-15325
▁नकार	-15326
▁बाबर	-15327
▁लालच	-15328
▁लोहा	-15329
▁शौहर	-15330
मोबाइल	-15331
▁उल्टी	-15332
▁ग़रीब	-15333
▁नापाक	-15334
▁नोट्स	-15335
▁बुर्ज	-15336
▁बेमेल	-15337
▁तुम्ही	-15338
▁पूछेगा	-15339
▁रिचर्ड	-15340
▁सिगरेट	-15341
▁नर्सिंग	-15342
▁यंत्रों	-15343
▁अनुज्ञेय	-15344
▁तस्वीरें	-15345
▁अधिष्ठापित	-15346
37	-15347
मश	-15348
ुख	-15349
▁कफ	-15350
आरएस	-15351
रेखण	-15352
लीला	-15353
वेरी	-15354
▁ग्न	-15355
▁पों	-15356
▁केले	-15357
▁गांठ	-15358
▁गाजा	-15359
▁झुकी	-15360
▁सूफी	-15361
न्द्रह	-15362
▁अधूरा	-15363
▁आरोहण	-15364
▁क्रॉस	-15365
▁चिकनी	-15366
▁दबाने	-15367
▁बन्दी	-15368
▁विजयन	-15369
▁व्यंज	-15370
▁ह्रदय	-15371
▁अनगिनत	-15372
▁रचनाएं	-15373
▁सुशासन	-15374
▁ऑक्सीजन	-15375
▁ऑप्टिकल	-15376
▁कविताएँ	-15377
▁चिंताओं	-15378
▁पुत्रों	-15379
▁स्थानिक	-15380
▁निर्देशन	-15381
▁स्वराज्य	-15382
▁चमत्कारों	-15383
▁प्रोसेसिंग	-15384
▁ब्राह्मणों	-15385
▁राजनीतिज्ञ	-15386
▁सूक्ष्मदर्शी	-15387
".	-15388
per	-15389
नाद	-15390
लिफ	-15391
ालु	-15392
यहूद	-15393
वासन	-15394
ोलिक	-15395
▁50%	-15396
▁अवर	-15397
▁एप्	-15398
▁जेट	-15399
▁डाई	-15400
▁तरस	-15401
▁बुध	-15402
▁हाय	-15403
italy	-15404
स्पेस	-15405
▁उदास	-15406
▁उलझन	-15407
▁क़ार	-15408
▁परले	-15409
▁पर्स	-15410
▁मुन्	-15411
▁मेधा	-15412
▁रूपा	-15413
▁वाटर	-15414
उदाहरण	-15415
▁खरीदा	-15416
▁चमकता	-15417
▁दुर्व	-15418
▁बिन्द	-15419
▁भारित	-15420
▁50,000	-15421
▁इनसाफ़	-15422
▁कमियों	-15423
▁गर्दिश	-15424
▁निकालो	-15425
▁मद्देन	-15426
▁मोर्चा	-15427
▁सूरदास	-15428
▁सूर्या	-15429
▁सेकण्ड	-15430
राष्ट्री	-15431
▁क्षुद्र	-15432
▁बुजुर्ग	-15433
▁समयावधि	-15434
▁संग्रहीत	-15435
▁अल्पकालिक	-15436
▁उत्पादकों	-15437
/0	-15438
aj	-15439
आग	-15440
।।	-15441
आदम	-15442
डेल	-15443
lock	-15444
विले	-15445
सबको	-15446
▁int	-15447
▁आइस	-15448
▁मरो	-15449
▁रपट	-15450
▁सजग	-15451
▁हज़	-15452
-2-2.	-15453
लेकिन	-15454
स्‍था	-15455
▁क्रि	-15456
▁खेले	-15457
▁छापा	-15458
▁जलने	-15459
▁तुर्	-15460
▁थोडा	-15461
▁दाँत	-15462
▁धनुष	-15463
▁२००५	-15464
कोशिका	-15465
▁उर्जा	-15466
▁चौबीस	-15467
▁ताबीर	-15468
▁पक्षा	-15469
▁पैलेस	-15470
▁पोषित	-15471
▁प्यास	-15472
▁फाइबर	-15473
▁माँगो	-15474
▁माइनस	-15475
▁सोचकर	-15476
▁हाजिर	-15477
▁ज्ञानी	-15478
▁फिलहाल	-15479
▁हालिया	-15480
▁हिब्रू	-15481
फ़रिश्ते	-15482
▁ईश्वरीय	-15483
▁त्रिकोण	-15484
▁ग्राफिक्स	-15485
▁सैद्धांतिक	-15486
प्रौद्योगिकी	-15487
▁प्रतीकात्मक	-15488
▁कार्यप्रणाली	-15489
ऋण	-15490
सज	-15491
-16	-15492
चैन	-15493
टिप	-15494
डोल	-15495
▁५०	-15496
util	-15497
जोड़	-15498
सीआई	-15499
▁(15	-15500
▁जूझ	-15501
▁दुम	-15502
▁बूँ	-15503
▁मिड	-15504
▁घाना	-15505
▁सोचो	-15506
प्रेशन	-15507
्रीकरण	-15508
▁आलोचक	-15509
▁क्रैश	-15510
▁खिसका	-15511
▁डिबगर	-15512
▁बैठता	-15513
▁महंगा	-15514
▁समरूप	-15515
▁सर्दी	-15516
▁सिक्ख	-15517
▁उपस्कर	-15518
▁कहलाती	-15519
▁बहियों	-15520
▁हरिश्च	-15521
▁निरर्थक	-15522
▁परन्तुक	-15523
▁प्राइवेट	-15524
▁बहुआयामी	-15525
▁संरचनाओं	-15526
▁अत्याधुनिक	-15527
ass	-15528
िनो	-15529
▁SM	-15530
▁ठो	-15531
आरआई	-15532
कायक	-15533
गेशन	-15534
पाही	-15535
साधन	-15536
▁छठे	-15537
▁पैग	-15538
▁हाए	-15539
yahoo	-15540
सूचित	-15541
ार्जन	-15542
▁कंटे	-15543
▁क्लो	-15544
▁गोदा	-15545
▁तुलन	-15546
▁पीटर	-15547
▁माथे	-15548
▁मुखर	-15549
▁सूती	-15550
▁काटना	-15551
▁चाहने	-15552
▁चिपका	-15553
▁मकबरे	-15554
▁मुस्त	-15555
▁संपरी	-15556
▁सत्तर	-15557
गुनाहों	-15558
▁डिक्री	-15559
▁तरीक़ा	-15560
▁निबन्ध	-15561
▁बेहतरी	-15562
▁भण्डार	-15563
▁मुट्ठी	-15564
▁रुकावट	-15565
▁सिन्धु	-15566
▁स्तुति	-15567
▁राशियों	-15568
▁आपूर्तिक	-15569
▁उग्रवादी	-15570
▁डेनमार्क	-15571
▁वाल्मीकि	-15572
▁उद्यमशीलता	-15573
▁राष्ट्रवाद	-15574
▁महत्वाकांक्षी	-15575
कण	-15576
नौ	-15577
शर	-15578
ire	-15579
ols	-15580
ymb	-15581
करा	-15582
▁इथ	-15583
क्कन	-15584
यावी	-15585
▁अबु	-15586
▁आहि	-15587
▁उज़	-15588
▁केन	-15589
▁जीभ	-15590
▁पीस	-15591
▁महि	-15592
▁सुग	-15593
-2000	-15594
ब्दिक	-15595
मितीय	-15596
मुख्य	-15597
▁उड़न	-15598
▁क़ान	-15599
▁गाते	-15600
▁चतुर	-15601
▁छेड़	-15602
▁नफ्स	-15603
▁भूरे	-15604
▁शाला	-15605
▁हंसी	-15606
परिवार	-15607
▁घटिया	-15608
▁तोहमत	-15609
▁पंखों	-15610
▁पलटना	-15611
▁मोड़ा	-15612
▁रुग्ण	-15613
▁गुज़ार	-15614
▁उज्ज्वल	-15615
▁पुरूषों	-15616
▁शासनकाल	-15617
▁जानेवाला	-15618
▁तेलंगाना	-15619
▁अस्पतालों	-15620
▁राजकुमारी	-15621
▁स्त्रियां	-15622
▁शांतिनिकेतन	-15623
31	-15624
ud	-15625
शौ	-15626
शाम	-15627
help	-15628
उसपर	-15629
जनरल	-15630
ज़ात	-15631
दीना	-15632
बैठे	-15633
सत्य	-15634
ाधीन	-15635
▁पाव	-15636
▁बदर	-15637
▁मुज	-15638
शुद्ध	-15639
ॉर्डन	-15640
ोबारी	-15641
्‍यों	-15642
▁कॉलम	-15643
▁सादे	-15644
▁स्‍त	-15645
▁हुक्	-15646
द्वारा	-15647
प्रवेश	-15648
▁आफताब	-15649
▁चालें	-15650
▁पत्ती	-15651
▁पराजय	-15652
▁पलायन	-15653
▁पहलें	-15654
▁रूसवा	-15655
▁साक्ष	-15656
▁सिरों	-15657
▁सॉल्व	-15658
▁स्टेड	-15659
▁स्वंय	-15660
▁आपरेशन	-15661
▁उत्तरो	-15662
▁गुर्दे	-15663
▁भेड़ों	-15664
▁मानोगे	-15665
▁अभिवादन	-15666
▁ऋणात्मक	-15667
▁जन्मजात	-15668
▁परिकलित	-15669
▁बकरियों	-15670
▁सिमुलेशन	-15671
▁हाइड्रोजन	-15672
▁विकिपीडियाः	-15673
▁आत्मनिर्भरता	-15674
▁प्रविष्टियों	-15675
▁दिशानिर्देशों	-15676
St	-15677
हस	-15678
चिप	-15679
ञ्च	-15680
शों	-15681
ोपा	-15682
सज़ा	-15683
▁(12	-15684
▁अजब	-15685
▁ऊंच	-15686
▁टाई	-15687
▁डोम	-15688
▁फलन	-15689
▁रूक	-15690
▁रूख	-15691
▁हिट	-15692
तौरैत	-15693
सियों	-15694
हुक्म	-15695
िंग्स	-15696
▁1954	-15697
▁टोपी	-15698
▁तौक़	-15699
▁धुरी	-15700
▁नामए	-15701
▁बोतल	-15702
▁मदयन	-15703
▁सूली	-15704
▁स्नि	-15705
एफसीआई	-15706
कुदरते	-15707
▁एक्से	-15708
▁क़ौमे	-15709
▁तौरैत	-15710
▁दसवीं	-15711
▁नक्शा	-15712
▁बदचलन	-15713
▁व्‍या	-15714
▁ऊर्ध्व	-15715
▁मुनाफा	-15716
▁अँधेरों	-15717
▁इमारतें	-15718
▁क्यक्ति	-15719
▁क्षितिज	-15720
▁चुनिंदा	-15721
▁पहुंचती	-15722
▁पूछेंगे	-15723
▁प्रत्यय	-15724
▁प्रांगण	-15725
▁बख़्शिस	-15726
▁मुख़ाले	-15727
▁शिलालेख	-15728
▁हुज़ूरी	-15729
▁कारीगरों	-15730
▁फ़ॉर्मेट	-15731
▁बरकतवाला	-15732
▁बेजबरुवा	-15733
▁मसख़रापन	-15734
▁मुहताजों	-15735
▁नफ़सियानी	-15736
▁बेरोजगारी	-15737
▁विरोधाभास	-15738
▁फ़रमाबरदार	-15739
▁व्यवस्थाओं	-15740
▁झुठलानेवालों	-15741
▁देवेन्द्रनाथ	-15742
वॉ	-15743
तुल	-15744
थलग	-15745
दीर	-15746
लीज	-15747
▁नख	-15748
करने	-15749
ताबी	-15750
बीआई	-15751
स्लो	-15752
▁sec	-15753
▁चेन	-15754
▁विभ	-15755
पूंजी	-15756
विद्य	-15757
▁उसमे	-15758
▁कपूर	-15759
▁फर्ज	-15760
▁बहाव	-15761
▁यकृत	-15762
▁सप्त	-15763
प्रसाद	-15764
▁काटकर	-15765
▁गोपुर	-15766
▁तटस्थ	-15767
▁न्यूज	-15768
▁बढ़ाई	-15769
▁सहेजी	-15770
न्तुष्ट	-15771
न्त्रिक	-15772
▁आयोजना	-15773
▁कीमिया	-15774
▁कुर्ता	-15775
▁गंधर्व	-15776
▁गुच्छे	-15777
▁जुड़ाव	-15778
▁परिचार	-15779
▁विलम्ब	-15780
▁स्कीमा	-15781
▁अन्देशा	-15782
▁करेंगें	-15783
▁दीवारें	-15784
▁मार्क्स	-15785
▁आधुनिकता	-15786
▁इंजीनियरों	-15787
▁हिस्सेदारी	-15788
▁लाभार्थियों	-15789
▁सिद्धान्तों	-15790
किए	-15791
दरी	-15792
ंबार	-15793
जाना	-15794
▁तें	-15795
▁थाम	-15796
▁दबे	-15797
▁लूप	-15798
▁शेल	-15799
▁सल्	-15800
िक्की	-15801
▁आयतन	-15802
▁निता	-15803
▁बचें	-15804
▁बनवा	-15805
▁बहने	-15806
▁बाँस	-15807
▁वैभव	-15808
eeting	-15809
नामकरण	-15810
▁अपवर्	-15811
▁काष्ठ	-15812
▁रवैया	-15813
▁सम्बो	-15814
▁स्टेज	-15815
द्देश्य	-15816
▁अकाउंट	-15817
▁कृतघ्न	-15818
▁प्यारे	-15819
▁मीटिंग	-15820
▁रिश्ता	-15821
▁आरम्भिक	-15822
▁शाहजहाँ	-15823
▁सम्पादन	-15824
▁स्पेक्ट	-15825
▁उत्साहित	-15826
▁धैर्यवान	-15827
▁मतदाताओं	-15828
▁मातृभाषा	-15829
▁कम्पनियों	-15830
▁प्रणालियां	-15831
▁बुद्धिमत्ता	-15832
अभ	-15833
बरू	-15834
शोध	-15835
ंगली	-15836
ल्सन	-15837
▁एला	-15838
▁कपट	-15839
▁तुन	-15840
▁दली	-15841
▁लीन	-15842
▁विड	-15843
▁सान	-15844
ड्यूल	-15845
रियों	-15846
र्भाव	-15847
षिद्ध	-15848
साध्य	-15849
सुकता	-15850
स्कोप	-15851
▁अंगी	-15852
▁घड़ा	-15853
▁यत्न	-15854
▁संतृ	-15855
▁सोते	-15856
ायुक्त	-15857
▁अध्‍य	-15858
▁अभिला	-15859
▁कोलंब	-15860
▁खुलकर	-15861
▁गोदाम	-15862
▁तमाशा	-15863
▁भुवने	-15864
▁सावधि	-15865
ानात्मक	-15866
▁अवयवों	-15867
▁क़र्ज़	-15868
▁प्रयाग	-15869
▁बंगलौर	-15870
▁बेहूदा	-15871
▁माउन्ट	-15872
▁शाखाएं	-15873
▁हथकरघा	-15874
▁अनुलग्न	-15875
▁निवेशों	-15876
▁प्रदूषक	-15877
▁रास्तों	-15878
▁फ़ाइलनाम	-15879
▁खिलाड़ियों	-15880
New	-15881
गुआ	-15882
विस	-15883
शाद	-15884
सिल	-15885
▁92	-15886
▁यी	-15887
_02.	-15888
अक्ष	-15889
डीएम	-15890
फ़ोन	-15891
ब्रा	-15892
लिंक	-15893
ोरों	-15894
▁10.	-15895
▁कटि	-15896
▁कोऋ	-15897
▁गधे	-15898
▁दीव	-15899
▁रचा	-15900
▁१९६	-15901
प्लेट	-15902
▁Serv	-15903
▁type	-15904
▁कपिल	-15905
▁घिरे	-15906
▁फरेब	-15907
[...]
